{
  "version": "1.0",
  "truncation": null,
  "padding": null,
  "added_tokens": [
    {
      "id": 0,
      "content": "[PAD]",
      "single_word": false,
      "lstrip": false,
      "rstrip": false,
      "normalized": false,
      "special": true
    },
    {
      "id": 1,
      "content": "[UNK]",
      "single_word": false,
      "lstrip": false,
      "rstrip": false,
      "normalized": false,
      "special": true
    },
    {
      "id": 2,
      "content": "[CLS]",
      "single_word": false,
      "lstrip": false,
      "rstrip": false,
      "normalized": false,
      "special": true
    },
    {
      "id": 3,
      "content": "[SEP]",
      "single_word": false,
      "lstrip": false,
      "rstrip": false,
      "normalized": false,
      "special": true
    },
    {
      "id": 4,
      "content": "[MASK]",
      "single_word": false,
      "lstrip": false,
      "rstrip": false,
      "normalized": false,
      "special": true
    }
  ],
  "normalizer": null,
  "pre_tokenizer": {
    "type": "ByteLevel",
    "add_prefix_space": false,
    "trim_offsets": true,
    "use_regex": true
  },
  "post_processor": {
    "type": "ByteLevel",
    "add_prefix_space": true,
    "trim_offsets": false,
    "use_regex": true
  },
  "decoder": {
    "type": "ByteLevel",
    "add_prefix_space": true,
    "trim_offsets": true,
    "use_regex": true
  },
  "model": {
    "type": "BPE",
    "dropout": null,
    "unk_token": null,
    "continuing_subword_prefix": null,
    "end_of_word_suffix": null,
    "fuse_unk": false,
    "byte_fallback": false,
    "ignore_merges": false,
    "vocab": {
      "[PAD]": 0,
      "[UNK]": 1,
      "[CLS]": 2,
      "[SEP]": 3,
      "[MASK]": 4,
      "!": 5,
      "\"": 6,
      "#": 7,
      "$": 8,
      "%": 9,
      "&": 10,
      "'": 11,
      "(": 12,
      ")": 13,
      "*": 14,
      "+": 15,
      ",": 16,
      "-": 17,
      ".": 18,
      "/": 19,
      "0": 20,
      "1": 21,
      "2": 22,
      "3": 23,
      "4": 24,
      "5": 25,
      "6": 26,
      "7": 27,
      "8": 28,
      "9": 29,
      ":": 30,
      ";": 31,
      "<": 32,
      "=": 33,
      ">": 34,
      "?": 35,
      "@": 36,
      "A": 37,
      "B": 38,
      "C": 39,
      "D": 40,
      "E": 41,
      "F": 42,
      "G": 43,
      "H": 44,
      "I": 45,
      "J": 46,
      "K": 47,
      "L": 48,
      "M": 49,
      "N": 50,
      "O": 51,
      "P": 52,
      "Q": 53,
      "R": 54,
      "S": 55,
      "T": 56,
      "U": 57,
      "V": 58,
      "W": 59,
      "X": 60,
      "Y": 61,
      "Z": 62,
      "[": 63,
      "\\": 64,
      "]": 65,
      "^": 66,
      "_": 67,
      "`": 68,
      "a": 69,
      "b": 70,
      "c": 71,
      "d": 72,
      "e": 73,
      "f": 74,
      "g": 75,
      "h": 76,
      "i": 77,
      "j": 78,
      "k": 79,
      "l": 80,
      "m": 81,
      "n": 82,
      "o": 83,
      "p": 84,
      "q": 85,
      "r": 86,
      "s": 87,
      "t": 88,
      "u": 89,
      "v": 90,
      "w": 91,
      "x": 92,
      "y": 93,
      "z": 94,
      "{": 95,
      "|": 96,
      "}": 97,
      "~": 98,
      "¡": 99,
      "¢": 100,
      "£": 101,
      "¤": 102,
      "¥": 103,
      "¦": 104,
      "§": 105,
      "¨": 106,
      "©": 107,
      "ª": 108,
      "«": 109,
      "¬": 110,
      "®": 111,
      "¯": 112,
      "°": 113,
      "±": 114,
      "²": 115,
      "³": 116,
      "´": 117,
      "µ": 118,
      "¶": 119,
      "·": 120,
      "¸": 121,
      "¹": 122,
      "º": 123,
      "»": 124,
      "¼": 125,
      "½": 126,
      "¾": 127,
      "¿": 128,
      "Â": 129,
      "Ã": 130,
      "Ä": 131,
      "Å": 132,
      "Æ": 133,
      "Ç": 134,
      "È": 135,
      "É": 136,
      "Ê": 137,
      "Ë": 138,
      "Ì": 139,
      "Í": 140,
      "Î": 141,
      "Ï": 142,
      "Ð": 143,
      "Ñ": 144,
      "Ò": 145,
      "Ó": 146,
      "Ô": 147,
      "Õ": 148,
      "Ö": 149,
      "×": 150,
      "Ø": 151,
      "Ù": 152,
      "Ú": 153,
      "Û": 154,
      "Ü": 155,
      "Þ": 156,
      "ß": 157,
      "à": 158,
      "á": 159,
      "â": 160,
      "ã": 161,
      "ä": 162,
      "å": 163,
      "æ": 164,
      "ç": 165,
      "è": 166,
      "é": 167,
      "ê": 168,
      "ë": 169,
      "ì": 170,
      "í": 171,
      "î": 172,
      "ï": 173,
      "ð": 174,
      "ñ": 175,
      "ó": 176,
      "Ā": 177,
      "ā": 178,
      "Ă": 179,
      "ă": 180,
      "Ą": 181,
      "ą": 182,
      "Ć": 183,
      "ć": 184,
      "Ĉ": 185,
      "Ċ": 186,
      "Ġ": 187,
      "Ģ": 188,
      "ģ": 189,
      "Ĥ": 190,
      "ĥ": 191,
      "Ħ": 192,
      "ħ": 193,
      "Ĩ": 194,
      "ĩ": 195,
      "Ī": 196,
      "ī": 197,
      "Ĭ": 198,
      "ĭ": 199,
      "Į": 200,
      "į": 201,
      "İ": 202,
      "ı": 203,
      "Ĳ": 204,
      "ĳ": 205,
      "Ĵ": 206,
      "ĵ": 207,
      "Ķ": 208,
      "ķ": 209,
      "ĸ": 210,
      "Ĺ": 211,
      "ĺ": 212,
      "Ļ": 213,
      "ļ": 214,
      "Ľ": 215,
      "ľ": 216,
      "Ŀ": 217,
      "ŀ": 218,
      "Ł": 219,
      "ł": 220,
      "Ń": 221,
      "HL": 222,
      "Ġ[": 223,
      "en": 224,
      "fr": 225,
      "ja": 226,
      "ãĥ": 227,
      "ãģ": 228,
      "ãĤ": 229,
      "HLå": 230,
      "HLãģ": 231,
      "HLæ": 232,
      "HLãĤ": 233,
      "es": 234,
      "HLt": 235,
      "on": 236,
      "HLa": 237,
      "HLä": 238,
      "HLd": 239,
      "in": 240,
      "HLç": 241,
      "HLp": 242,
      "HLãĥ": 243,
      "er": 244,
      "HLs": 245,
      "HLc": 246,
      "HLè": 247,
      "ãĥ¼": 248,
      "HLl": 249,
      "ou": 250,
      "re": 251,
      "Ã©": 252,
      "HLé": 253,
      "an": 254,
      "it": 255,
      "is": 256,
      "at": 257,
      "HLm": 258,
      "HLth": 259,
      "ãĥ³": 260,
      "or": 261,
      "ãĤĭ": 262,
      "ar": 263,
      "HLb": 264,
      "et": 265,
      "HLä¸": 266,
      "HLde": 267,
      "le": 268,
      "ent": 269,
      "HLf": 270,
      "HLw": 271,
      "al": 272,
      "ion": 273,
      "HLthe": 274,
      "ï¼": 275,
      "ãĥ¼ãĥ": 276,
      "om": 277,
      "il": 278,
      "HLh": 279,
      "qu": 280,
      "ãĥĥ": 281,
      "HLn": 282,
      "ur": 283,
      "ic": 284,
      "as": 285,
      "HLo": 286,
      "20": 287,
      "ãĤ¹": 288,
      "el": 289,
      "HLan": 290,
      "HLv": 291,
      "ing": 292,
      "un": 293,
      "ãĤ¤": 294,
      "HLin": 295,
      "ed": 296,
      "ãĥĪ": 297,
      "HLr": 298,
      "ãģĦ": 299,
      "äº": 300,
      "HLãģĦ": 301,
      "ĵãģ": 302,
      "HLg": 303,
      "ä¸": 304,
      "åı": 305,
      "HLãģª": 306,
      "us": 307,
      "ãĢ": 308,
      "our": 309,
      "HLå¤": 310,
      "âĢ": 311,
      "ro": 312,
      "HLto": 313,
      "ãĥ«": 314,
      "ac": 315,
      "ãĤĬ": 316,
      "10": 317,
      "HLäº": 318,
      "te": 319,
      "HLla": 320,
      "id": 321,
      "HLå®": 322,
      "HLle": 323,
      "HLand": 324,
      "ãģ£": 325,
      "ãĤ¯": 326,
      "å®": 327,
      "HLof": 328,
      "æľ": 329,
      "HLe": 330,
      "âĢĻ": 331,
      "HLãģĵãģ": 332,
      "æĸ": 333,
      "HLåħ": 334,
      "ãĥ©": 335,
      "ve": 336,
      "ol": 337,
      "ment": 338,
      "çĶ": 339,
      "os": 340,
      "ot": 341,
      "ation": 342,
      "åĪ": 343,
      "ãĤĮ": 344,
      "ch": 345,
      "ir": 346,
      "HLãģĤ": 347,
      "HLre": 348,
      "HLet": 349,
      "HLæľ": 350,
      "ãĥª": 351,
      "im": 352,
      "201": 353,
      "ut": 354,
      "ãģĨ": 355,
      "HLåı": 356,
      "est": 357,
      "00": 358,
      "HLen": 359,
      "ag": 360,
      "HLun": 361,
      "HLqu": 362,
      "HLãģĻ": 363,
      "HLä»": 364,
      "ct": 365,
      "åħ": 366,
      "ig": 367,
      "am": 368,
      "ãĥ³ãĤ": 369,
      "pp": 370,
      "ķãĤ": 371,
      "HLy": 372,
      "ä»": 373,
      "HLæĹ": 374,
      "ce": 375,
      "ãĥ³ãĥ": 376,
      "½ĳ": 377,
      "ad": 378,
      "ant": 379,
      "ont": 380,
      "HLå¤§": 381,
      "åĬ": 382,
      "HLãģĿ": 383,
      "HLå½": 384,
      "HLch": 385,
      "å¤": 386,
      "ie": 387,
      "åĽ": 388,
      "ãĥ¼ãĤ": 389,
      "HLles": 390,
      "HLä¸Ģ": 391,
      "HLj": 392,
      "HLãģĹ": 393,
      "HLdes": 394,
      "ãĥ¬": 395,
      "ul": 396,
      "HLãģ§": 397,
      "oc": 398,
      "ãģ®": 399,
      "HLæĸ": 400,
      "HLãģĻãĤĭ": 401,
      "HLåĪ": 402,
      "ers": 403,
      "HLä½": 404,
      "ous": 405,
      "HLåĩ": 406,
      "HLãģĵãģ¨": 407,
      ",:": 408,
      "HLpro": 409,
      "HLfor": 410,
      "åº": 411,
      "if": 412,
      "ãģĭ": 413,
      "å¸": 414,
      "ãģı": 415,
      "HLpar": 416,
      "HLcom": 417,
      "ay": 418,
      "åĲ": 419,
      "Ã¨": 420,
      "HLåį": 421,
      "ãģį": 422,
      "HLçĶ": 423,
      "HLãĤ¹": 424,
      "):": 425,
      "ä¹": 426,
      "©ç": 427,
      "ãĤ¢": 428,
      "lv": 429,
      "HLãĤ¢": 430,
      "ãĤī": 431,
      "¿½": 432,
      "ab": 433,
      "iv": 434,
      "HLon": 435,
      "åŃ": 436,
      "ess": 437,
      "ä½": 438,
      "ow": 439,
      "æĿ": 440,
      "HLst": 441,
      "¼ļ": 442,
      "HLpr": 443,
      "ï¿½": 444,
      "ãĥĥãĥ": 445,
      "ter": 446,
      "HLéĢ": 447,
      "HLse": 448,
      "æĹ": 449,
      "ra": 450,
      "ãģĹ": 451,
      "HLãģĦãĤĭ": 452,
      "ãģŁ": 453,
      "HLcon": 454,
      "HLbe": 455,
      "HLis": 456,
      "da": 457,
      "HLpl": 458,
      "ans": 459,
      "HLpour": 460,
      "ç½ĳ": 461,
      "and": 462,
      "HLåĲ": 463,
      "HLal": 464,
      "ill": 465,
      "·ãĥ": 466,
      "se": 467,
      "åĵ": 468,
      "ãĥĥãĤ¯": 469,
      "HLåĽ": 470,
      "st": 471,
      "out": 472,
      "åıĳ": 473,
      "HLå¹": 474,
      "ire": 475,
      "HLãĤĪ": 476,
      "ly": 477,
      "å·": 478,
      "ãĥŃ": 479,
      ".:": 480,
      "HLãĤ³": 481,
      "od": 482,
      "sv": 483,
      "HLãģ¾": 484,
      "pl": 485,
      "HLæī": 486,
      "iqu": 487,
      "©ç¥": 488,
      "ãĥĥãĥĪ": 489,
      "HLfr": 490,
      "ãĤ¤ãĥ": 491,
      "ç«": 492,
      "çī": 493,
      "me": 494,
      "HLdu": 495,
      "HLapp": 496,
      "au": 497,
      "¡Į": 498,
      "éĢ": 499,
      "ain": 500,
      "HLè¿": 501,
      "å±": 502,
      "age": 503,
      "HLå½©ç¥": 504,
      "ãģ¨": 505,
      "ï½": 506,
      "ne": 507,
      "éĩ": 508,
      "åľ": 509,
      "HLwh": 510,
      "åį": 511,
      "HLãĤµ": 512,
      "çĶ¨": 513,
      "çĲ": 514,
      "äºº": 515,
      "HLsu": 516,
      "HLau": 517,
      "HLçĽ": 518,
      "æ³": 519,
      "HLãĤĤ": 520,
      "æĪ": 521,
      "ort": 522,
      "HLãģĭ": 523,
      "ãĤ£": 524,
      "å½": 525,
      "em": 526,
      "HLå®ĺ": 527,
      "å¼": 528,
      "HLne": 529,
      "HLk": 530,
      "ver": 531,
      "Ã©s": 532,
      "HLãģŁ": 533,
      "ãĤ¿": 534,
      "ãĤĤ": 535,
      "ãģ¾": 536,
      "11": 537,
      "HLèµ": 538,
      "op": 539,
      "HLä¸Ń": 540,
      "HLit": 541,
      "è½": 542,
      "HLas": 543,
      "bl": 544,
      "HLæĬ": 545,
      "ä¼ļ": 546,
      "ith": 547,
      "ht": 548,
      "HLåĮ": 549,
      "th": 550,
      "HLãĤ«": 551,
      "ip": 552,
      "HLÃ©": 553,
      "HLtr": 554,
      "HLex": 555,
      "HLå¼": 556,
      "12": 557,
      "ist": 558,
      "åĨ": 559,
      "HLyou": 560,
      "HLsur": 561,
      "ais": 562,
      "HLãĤı": 563,
      "åĮ": 564,
      "HLåĩº": 565,
      "HLãģĬ": 566,
      "æĺ": 567,
      "ãĢģ": 568,
      "ĻĤ": 569,
      "36": 570,
      "ł´": 571,
      "åĵģ": 572,
      "HLpk": 573,
      "æī": 574,
      "end": 575,
      "um": 576,
      "HLwith": 577,
      "HLå°": 578,
      "éĻ": 579,
      "ate": 580,
      "ãĤģ": 581,
      "ure": 582,
      "Ã©r": 583,
      "HLthat": 584,
      "HLéĩ": 585,
      "æĸĻ": 586,
      "HLåľ": 587,
      "com": 588,
      "og": 589,
      "ite": 590,
      "30": 591,
      "å¹": 592,
      "HLå¿": 593,
      "®¡": 594,
      "æĸ¹": 595,
      "æĢ": 596,
      "ine": 597,
      "HLæĹ¥": 598,
      "ĥ½": 599,
      "HLãģ§ãģį": 600,
      "15": 601,
      "å¿": 602,
      "HLä¸į": 603,
      "èĢ": 604,
      "åĽ½": 605,
      "19": 606,
      "HLãģĤãĤĬ": 607,
      "çĽ": 608,
      "HLåĨ": 609,
      "HLãĥĲ": 610,
      "HLãģ¨": 611,
      "ãĥ³ãĤ°": 612,
      "åĭ": 613,
      "HLdÃ©": 614,
      "ãĤ¦": 615,
      "HLãģı": 616,
      "HLãģªãģĦ": 617,
      "pe": 618,
      "ãĥĥãĤ": 619,
      "ãĥ¥": 620,
      "HLå¥": 621,
      "HLå·": 622,
      "æł": 623,
      "pr": 624,
      "ãĥ¼ãĥ«": 625,
      "cs": 626,
      "éĸ": 627,
      "ãĤĵ": 628,
      "HLæĪ": 629,
      "HLsh": 630,
      "HLor": 631,
      "ãĥ¼ãĤ¹": 632,
      "HLä¸ĭ": 633,
      "ial": 634,
      "ãģĳ": 635,
      "HLãĤĪãģĨ": 636,
      "HLat": 637,
      "ib": 638,
      "è¦": 639,
      "HLwe": 640,
      "oun": 641,
      "ique": 642,
      "HLest": 643,
      "\":": 644,
      "HLæĿ": 645,
      "HLpas": 646,
      "HLãĥĸ": 647,
      "HLune": 648,
      "16": 649,
      "HLæķ": 650,
      "HLãĤ»": 651,
      "HLæľĢ": 652,
      "ff": 653,
      "è¿": 654,
      "ãģĻ": 655,
      "ãĥ³ãĥĪ": 656,
      "ãĥĨ": 657,
      "ï¼ļ": 658,
      "HLåŃ": 659,
      "ien": 660,
      "HLéĽ": 661,
      "å¾": 662,
      "ak": 663,
      "åĳ": 664,
      "ier": 665,
      "HLãģķãĤ": 666,
      "ãĤĵãģ": 667,
      "HLque": 668,
      "ç¤": 669,
      "æľ¬": 670,
      "HLå½©ç¥ŀ": 671,
      "ãģ¯": 672,
      "HLdans": 673,
      "ãĥ£": 674,
      "è¯": 675,
      "¥Ń": 676,
      "ãģł": 677,
      "Ã©e": 678,
      "ãĥ¼ãĥĪ": 679,
      "ive": 680,
      "å°": 681,
      "HLãģĤãĤĭ": 682,
      "HLmo": 683,
      "çĲĨ": 684,
      "ge": 685,
      "ãģ¦": 686,
      "éģ": 687,
      "èĤ": 688,
      "ĩª": 689,
      "HLæĶ": 690,
      "HLåĬ": 691,
      "ction": 692,
      "HLãĥŀ": 693,
      "HLç½ĳ": 694,
      "ãĥ¡": 695,
      "å¸Ĥ": 696,
      "åĲĪ": 697,
      "ue": 698,
      "ãĥĭ": 699,
      "HLãĥ©": 700,
      "åĪĨ": 701,
      "ance": 702,
      "å®ļ": 703,
      "æ°": 704,
      "zh": 705,
      "tl": 706,
      "av": 707,
      "HLæ³": 708,
      "pt": 709,
      "HLãĤª": 710,
      "ĥ¨": 711,
      "HLãĥ¡": 712,
      "åŃĲ": 713,
      "HLä¿": 714,
      "å¥": 715,
      "HLãĥ¬": 716,
      "īį": 717,
      "HLçİ": 718,
      "«ĺ": 719,
      "HLè¨": 720,
      "ãģª": 721,
      "ell": 722,
      "è¨": 723,
      "ack": 724,
      "HLãģĿãģ®": 725,
      "HLæĸ°": 726,
      "HLãĤ¤": 727,
      "gr": 728,
      "è¡Į": 729,
      "17": 730,
      "æĿ¥": 731,
      "HLæİ": 732,
      "æĢ§": 733,
      "HLãģĵãģ®": 734,
      "HLãĤĦ": 735,
      "HLæĺ": 736,
      "HLare": 737,
      "ãĥł": 738,
      "HLå¸": 739,
      "HLãĤ¯": 740,
      "ãĤ¸": 741,
      "ap": 742,
      "HLãĥĳ": 743,
      "æŀ": 744,
      "ãĥŁ": 745,
      "HLä¹": 746,
      "de": 747,
      "Ãª": 748,
      "18": 749,
      "HLç´": 750,
      "éĸĵ": 751,
      "ãģ¡": 752,
      "èĢħ": 753,
      "HLar": 754,
      "æĹ¥": 755,
      "HLäºº": 756,
      "HLæīĭ": 757,
      "HLgr": 758,
      "HLha": 759,
      "tr": 760,
      "HLèĩª": 761,
      "HLãģķãĤĵ": 762,
      "ç«Ļ": 763,
      "HLãĤŃ": 764,
      "able": 765,
      "ies": 766,
      "ãĤį": 767,
      "365": 768,
      "äºĭ": 769,
      "ere": 770,
      "HLåĮĹ": 771,
      "HLcl": 772,
      "ight": 773,
      "HLãĥª": 774,
      "HLåħ¨": 775,
      "ãĥ¼ãĥł": 776,
      "æµ": 777,
      "HLçī": 778,
      "HLæĻĤ": 779,
      "çĶŁ": 780,
      "ok": 781,
      "HLå¤§åıĳ": 782,
      "HLåĽ½": 783,
      "ard": 784,
      "HLåķ": 785,
      "·ãĥ§": 786,
      "æķ": 787,
      "HLag": 788,
      "25": 789,
      "ost": 790,
      "ï¼Ī": 791,
      "HLç»": 792,
      "ide": 793,
      "ãĥŀ": 794,
      "ç»": 795,
      "HLçĦ": 796,
      "HLæĢ": 797,
      "HLå¹³": 798,
      "ä¿": 799,
      "äº¬": 800,
      "ï¾": 801,
      "ait": 802,
      "HLãģ©": 803,
      "HLthis": 804,
      "HLãģªãģ£": 805,
      "HLnot": 806,
      "02": 807,
      "one": 808,
      "elle": 809,
      "art": 810,
      "all": 811,
      "éĹ": 812,
      "HLje": 813,
      "ãģ«": 814,
      "ock": 815,
      "ãģķ": 816,
      "åİ": 817,
      "æ´": 818,
      "HLãĤ¨": 819,
      "HLqui": 820,
      "è½½": 821,
      "ia": 822,
      "ãĥĥãĥĹ": 823,
      "èĥ½": 824,
      "ãĤ³": 825,
      "HLæ¸": 826,
      "åĿ": 827,
      "çİ": 828,
      "HLãģ¤": 829,
      "HLéģ": 830,
      "HLè²": 831,
      "è®": 832,
      "HLãģĪ": 833,
      "åĩ": 834,
      "åº¦": 835,
      "ä¹Ĳ": 836,
      "ãĤ¤ãĥĪ": 837,
      "HLus": 838,
      "14": 839,
      "2018": 840,
      "ãĥ¼ãĥī": 841,
      "ãĤ§": 842,
      "HLãĥĹ": 843,
      "æľº": 844,
      "éĽ": 845,
      "HLme": 846,
      "æ¸": 847,
      "HLä¼": 848,
      "HLãĥĪ": 849,
      "çķ": 850,
      "HLpe": 851,
      "HLä¸ĭè½½": 852,
      "HLå±": 853,
      "HLãģĵ": 854,
      "HLave": 855,
      "HLçĦ¡": 856,
      "éĿ": 857,
      "HLrÃ©": 858,
      "ãĢĲ": 859,
      "HLce": 860,
      "act": 861,
      "æ³ķ": 862,
      "ux": 863,
      "HLçĻ": 864,
      "åĬĽ": 865,
      "HLplus": 866,
      "urs": 867,
      "200": 868,
      "ions": 869,
      "HLåħ¬": 870,
      "HLcan": 871,
      "HLãĥķãĤ": 872,
      "HLby": 873,
      "res": 874,
      "ail": 875,
      "è¦ģ": 876,
      "HLä»¥": 877,
      "çº": 878,
      "HLou": 879,
      "HLil": 880,
      "HLæŃ": 881,
      "è§": 882,
      "æŃ": 883,
      "HLvous": 884,
      "HLser": 885,
      "itÃ©": 886,
      "¾İ": 887,
      "22": 888,
      "HLso": 889,
      "ãĥķãĤ": 890,
      "HLåı¯": 891,
      "ä¸Ĭ": 892,
      "ice": 893,
      "ç´": 894,
      "HLcont": 895,
      "HLå®ĺæĸ¹": 896,
      "HLpart": 897,
      "HLac": 898,
      "HLå®ĺç½ĳ": 899,
      "æīĭ": 900,
      "ãĥ³ãĥī": 901,
      "HLyour": 902,
      "13": 903,
      "HLä»Ĭ": 904,
      "HLãģªãĤĭ": 905,
      "HLæľ¬": 906,
      "du": 907,
      "HLmar": 908,
      "ld": 909,
      "ãģĵ": 910,
      "ä½ľ": 911,
      "HLåĪĨ": 912,
      "å¹´": 913,
      "æĦ": 914,
      "ĥħ": 915,
      "ons": 916,
      "HLavec": 917,
      "å®¶": 918,
      "ãĤŃ": 919,
      "HLhe": 920,
      "ity": 921,
      "ign": 922,
      "HLä½ĵ": 923,
      "up": 924,
      "HLå¼Ģ": 925,
      "èĤ²": 926,
      "ult": 927,
      "ãĥĲ": 928,
      "ert": 929,
      "HLæµ": 930,
      "50": 931,
      "ĮãĤĭ": 932,
      "åħ¥": 933,
      "ï¿½ï¿½": 934,
      "HLãĤ¿": 935,
      "orm": 936,
      "HLãĥĩ": 937,
      "HLé«ĺ": 938,
      "HLav": 939,
      "HLãĤ·": 940,
      "HLad": 941,
      "ãĥĬ": 942,
      "HLçĶŁ": 943,
      "HLwas": 944,
      "åı°": 945,
      "ç¨": 946,
      "ãĤ«": 947,
      "aire": 948,
      "HLéĿ": 949,
      "HLim": 950,
      "ãĢĤ": 951,
      "ï¼ī": 952,
      "HLåľ°": 953,
      "HLåıĳ": 954,
      "HLåĩ¯": 955,
      "HLæĹ¥æľ¬": 956,
      "ãĥĩ": 957,
      "HLæ°": 958,
      "ob": 959,
      "æ±": 960,
      "HLçľ": 961,
      "ace": 962,
      "ãĥķ": 963,
      "HLæĦ": 964,
      "åŃ¦": 965,
      "HLè®¡": 966,
      "HLæĬķ": 967,
      "iÃ¨": 968,
      "HLè§": 969,
      "ãĢĳ": 970,
      "HLåĩ¯åıĳ": 971,
      "23": 972,
      "cl": 973,
      "ik": 974,
      "are": 975,
      "HLå¾": 976,
      "ations": 977,
      "HLç§": 978,
      ",\"": 979,
      "04": 980,
      "HLres": 981,
      "é¡": 982,
      "HLall": 983,
      "HLçĽ¸": 984,
      "24": 985,
      "03": 986,
      "ore": 987,
      "ach": 988,
      "ient": 989,
      "å¼ı": 990,
      "æ¥Ń": 991,
      "ale": 992,
      "å¿ĥ": 993,
      "ich": 994,
      "åīį": 995,
      "HLte": 996,
      "è¡": 997,
      "èµ": 998,
      "HLæı": 999,
      "ãĥĸ": 1000,
      "HLcomp": 1001,
      "HLãĤĮãĤĭ": 1002,
      "HLfrom": 1003,
      "HLãģĿãĤĮ": 1004,
      "ens": 1005,
      "HLam": 1006,
      "HLçµ": 1007,
      "HLhave": 1008,
      "wp": 1009,
      "HLå·¥": 1010,
      "ord": 1011,
      "HLãģ§ãģ¯": 1012,
      "åł": 1013,
      "å¤§": 1014,
      "28": 1015,
      "HLab": 1016,
      "HLåĮĹäº¬": 1017,
      "Ĥ¹": 1018,
      "HLper": 1019,
      "ink": 1020,
      "ud": 1021,
      "ç¤¾": 1022,
      "HLåĪ©": 1023,
      "HLãĤĤãģ®": 1024,
      "ust": 1025,
      "//": 1026,
      "HLæĹ¶": 1027,
      "HLãģ¡": 1028,
      "HLå®ī": 1029,
      "HLsp": 1030,
      "ise": 1031,
      "ix": 1032,
      "æ¬": 1033,
      "ãĥģ": 1034,
      "å¯": 1035,
      "ca": 1036,
      "col": 1037,
      "iz": 1038,
      "ass": 1039,
      "ile": 1040,
      "HLãģªãĤĬ": 1041,
      "HLè¦": 1042,
      "HLåķĨ": 1043,
      "HLbl": 1044,
      "ound": 1045,
      "HLè¡": 1046,
      "ķ¿": 1047,
      "iss": 1048,
      "ãĤ¨": 1049,
      "HLæ³¨": 1050,
      "ä¹Ī": 1051,
      "è´": 1052,
      "HLæł": 1053,
      "åł´": 1054,
      "ï¼ĳ": 1055,
      "éľ": 1056,
      "oir": 1057,
      "ru": 1058,
      "05": 1059,
      "åĬ¿": 1060,
      "ps": 1061,
      "ww": 1062,
      "éĺ": 1063,
      "HLåł´": 1064,
      "HLman": 1065,
      "HLåİ": 1066,
      "ook": 1067,
      "ä¸ļ": 1068,
      "HLèµ°": 1069,
      "HLãĥģ": 1070,
      "HLãģĨ": 1071,
      "HLãģ¿": 1072,
      "ãĥĵ": 1073,
      "ind": 1074,
      "HLå½©ç¥¨": 1075,
      "HLå¥³": 1076,
      "ime": 1077,
      "HLãĥĸãĥ©": 1078,
      "ï¼Ĳ": 1079,
      "æĬ": 1080,
      "HLç¾İ": 1081,
      "HLwill": 1082,
      "HLãģŁãĤģ": 1083,
      "æĹ¶": 1084,
      "ä½ĵ": 1085,
      "HLåĬł": 1086,
      "ome": 1087,
      "ãĤĥ": 1088,
      "çī©": 1089,
      "HLãĥĽ": 1090,
      "bn": 1091,
      "HLå¯": 1092,
      "HLãĥķ": 1093,
      "åĮĸ": 1094,
      "01": 1095,
      "åĭķ": 1096,
      "éĥ¨": 1097,
      "HLæ´": 1098,
      "åĽ¾": 1099,
      "HLdo": 1100,
      "ãĥ»": 1101,
      "ãĥĹ": 1102,
      "08": 1103,
      "åŁ": 1104,
      "HLå°ı": 1105,
      "ãĤ¹ãĥĪ": 1106,
      "ille": 1107,
      "¾Ļ": 1108,
      "èī": 1109,
      "Ã©t": 1110,
      "int": 1111,
      "HLè®": 1112,
      "Ã¨s": 1113,
      "HLãģ§ãģįãĤĭ": 1114,
      "HLæ±": 1115,
      "ments": 1116,
      "ãĤ°": 1117,
      "2019": 1118,
      "æĺ¯": 1119,
      "ins": 1120,
      "21": 1121,
      "ition": 1122,
      "HLä½ľ": 1123,
      "ç§": 1124,
      "HLgo": 1125,
      "HLæ²": 1126,
      "ä»¶": 1127,
      "HLæĭ": 1128,
      "HLãĥŃ": 1129,
      "ang": 1130,
      "HLéĸ": 1131,
      "ond": 1132,
      "09": 1133,
      "HLãģ§ãĤĤ": 1134,
      "che": 1135,
      "ä¾": 1136,
      "HLæĸ¹": 1137,
      "HLæıĲ": 1138,
      "ä¸Ń": 1139,
      "HLå®ĺæĸ¹ç½ĳ": 1140,
      "HLãģĵãĤĮ": 1141,
      "HLä¼ļ": 1142,
      "tre": 1143,
      "onn": 1144,
      "HLéĩĳ": 1145,
      "HLãģĿãģĨ": 1146,
      "HLéĻ": 1147,
      "}.": 1148,
      "HLãĥı": 1149,
      "æ²": 1150,
      "://": 1151,
      "HLãģĻãģ": 1152,
      "ãĥĶ": 1153,
      "HLãģ¯": 1154,
      "so": 1155,
      "block": 1156,
      "ãĤª": 1157,
      "ãĥ¼ãĤ¸": 1158,
      "æľŁ": 1159,
      "ãģĮ": 1160,
      "HLdis": 1161,
      "åľ°": 1162,
      "éĿ¢": 1163,
      "HLåŁ": 1164,
      "HLçĦ¡æĸĻ": 1165,
      "ãģ¤": 1166,
      "HLèµ°åĬ¿": 1167,
      "ä¿¡": 1168,
      "ä¼": 1169,
      "è½¦": 1170,
      "ph": 1171,
      "çĲĥ": 1172,
      "éĩĳ": 1173,
      "æĪĲ": 1174,
      "Ã©c": 1175,
      "HLéĺ": 1176,
      "07": 1177,
      "35": 1178,
      "Ã©es": 1179,
      "HLé£": 1180,
      "ors": 1181,
      "HLä¸Ĭ": 1182,
      "HLå®ĺæĸ¹ç½ĳç«Ļ": 1183,
      "HLãĥĢ": 1184,
      "å®ī": 1185,
      "HLãģį": 1186,
      "·ãĥ§ãĥ³": 1187,
      "HLåĭ": 1188,
      "HLãĥĿ": 1189,
      "HLèĭ": 1190,
      "HLå¨": 1191,
      "ä¸Ģ": 1192,
      "form": 1193,
      "è²": 1194,
      "ong": 1195,
      "åĪĴ": 1196,
      "HLcomm": 1197,
      "HLma": 1198,
      "HLãĥĨ": 1199,
      "HLéĢļ": 1200,
      "åĿĢ": 1201,
      "ork": 1202,
      "å¤ĸ": 1203,
      "ãĢĢ": 1204,
      "HLsa": 1205,
      "HLãģ»": 1206,
      "ces": 1207,
      "HLåŃ¦": 1208,
      "åºĹ": 1209,
      "èª": 1210,
      "HLja": 1211,
      "ose": 1212,
      "ence": 1213,
      "27": 1214,
      "çľ": 1215,
      "HLent": 1216,
      "HLæĪĲ": 1217,
      "å±±": 1218,
      "ãĤ·": 1219,
      "HLãĤī": 1220,
      "HLinter": 1221,
      "èŃ": 1222,
      "..": 1223,
      "HLmy": 1224,
      "¥¿": 1225,
      "HLå¹³åı°": 1226,
      "ãĥĥãĤ¯ãĤ¹": 1227,
      "åł±": 1228,
      "HLæ¯": 1229,
      "ette": 1230,
      "ãĥį": 1231,
      "HLä¸ī": 1232,
      "he": 1233,
      "ãĤº": 1234,
      "oy": 1235,
      "æĸ°": 1236,
      "ä¸ª": 1237,
      "æľī": 1238,
      "hi": 1239,
      "cont": 1240,
      "ast": 1241,
      "HLèµ°åĬ¿åĽ¾": 1242,
      "26": 1243,
      "»º": 1244,
      "HLbr": 1245,
      "HLãģĪãĤĭ": 1246,
      "000": 1247,
      "HLãģĹãģĦ": 1248,
      "HLph": 1249,
      "HLpre": 1250,
      "mb": 1251,
      "HLè®¡åĪĴ": 1252,
      "HLtra": 1253,
      "åĩº": 1254,
      "HLãģĹãģ¾": 1255,
      "que": 1256,
      "HLãĤ·ãĥ": 1257,
      "HLif": 1258,
      "air": 1259,
      "per": 1260,
      "xt": 1261,
      "çīĮ": 1262,
      "HLä½ĵèĤ²": 1263,
      "HLno": 1264,
      "HLÃ©t": 1265,
      "éģĵ": 1266,
      "æ¯": 1267,
      "ould": 1268,
      "HLæľī": 1269,
      "HLãĤīãĤĮ": 1270,
      "HLcar": 1271,
      "HLåģ": 1272,
      "HLbut": 1273,
      "º«": 1274,
      "HLè´": 1275,
      "HLãĥī": 1276,
      "HLäºī": 1277,
      "HLä¸ĩ": 1278,
      "HLéħ": 1279,
      "cr": 1280,
      "HLçŁ": 1281,
      "her": 1282,
      "é¢": 1283,
      "©Ł": 1284,
      "å£": 1285,
      "100": 1286,
      "HLäºĮ": 1287,
      "HLcol": 1288,
      "HLéĢģ": 1289,
      "å¤©": 1290,
      "HLè³": 1291,
      "HLèĢ": 1292,
      "åĮº": 1293,
      "ãĤĵãģª": 1294,
      "çµ": 1295,
      "ame": 1296,
      "port": 1297,
      "HLãĤ±": 1298,
      "HLå¿«": 1299,
      "06": 1300,
      "app": 1301,
      "æŀľ": 1302,
      "HLäºĭ": 1303,
      "2017": 1304,
      "px": 1305,
      "HLè¯": 1306,
      "HLçĻ»": 1307,
      "HLæīĭæľº": 1308,
      "ãĥªãĥ¼": 1309,
      "HLout": 1310,
      "æº": 1311,
      "ãĥī": 1312,
      "¥ŀ": 1313,
      "HLæĮ": 1314,
      "è£": 1315,
      "HLä¸ŃåĽ½": 1316,
      "2016": 1317,
      "ect": 1318,
      "åĢ": 1319,
      "éľ¸": 1320,
      "HLco": 1321,
      "HLaut": 1322,
      "ç½": 1323,
      "ãĥ¯": 1324,
      "HLãģķ": 1325,
      "±ä¹Ĳ": 1326,
      "HLä¸»": 1327,
      "\",\"": 1328,
      "HLãĥŁ": 1329,
      "its": 1330,
      "è³": 1331,
      "é¾Ļ": 1332,
      "ouv": 1333,
      ";:": 1334,
      "HLåł´åĲĪ": 1335,
      "HLãĤ¸": 1336,
      "ãĤ¤ãĥ³": 1337,
      "HLäºīéľ¸": 1338,
      "aut": 1339,
      "HLpu": 1340,
      "HLé¢": 1341,
      "èĪ": 1342,
      "HLæŃ£": 1343,
      "HLæ£": 1344,
      "HLæĥħ": 1345,
      "ours": 1346,
      "ç©": 1347,
      "ä¸ĭ": 1348,
      "ãĥ¼ãĤº": 1349,
      "ear": 1350,
      "æĶ": 1351,
      "èģ": 1352,
      "HLç¨": 1353,
      "HLéĤ": 1354,
      "HLåįķ": 1355,
      "łģ": 1356,
      "HLå¨±ä¹Ĳ": 1357,
      "sl": 1358,
      "29": 1359,
      "ãĤµ": 1360,
      "æİ": 1361,
      "HLå¤©": 1362,
      "les": 1363,
      "HLå¸Ĥ": 1364,
      "HLãģĦãģŁ": 1365,
      "aux": 1366,
      "HLåĲį": 1367,
      "å§": 1368,
      "HLãĥ¢": 1369,
      "uss": 1370,
      "HLmais": 1371,
      "ocial": 1372,
      "HLå¿ħ": 1373,
      "HLä»£": 1374,
      "ures": 1375,
      "arg": 1376,
      "ated": 1377,
      "ical": 1378,
      "HLåķĨåĵģ": 1379,
      "HLãģ¦": 1380,
      "HLæĸĩ": 1381,
      "ois": 1382,
      "HLãģ¾ãģŁ": 1383,
      "Ħ¶": 1384,
      "çº¿": 1385,
      "HLå½ĵ": 1386,
      "å·ŀ": 1387,
      "HLãģĦãģĦ": 1388,
      "ãĥĥãĥģ": 1389,
      "HLhas": 1390,
      "HLãĤ°": 1391,
      "HLåĵ": 1392,
      "HLä¿Ŀ": 1393,
      "HLè¶": 1394,
      "ãĥĢ": 1395,
      "tp": 1396,
      "HLé¦": 1397,
      "HLnew": 1398,
      "ãģ§": 1399,
      "çķĮ": 1400,
      "ãĥĩãĤ£": 1401,
      "Ã´": 1402,
      "HLint": 1403,
      "45": 1404,
      "66": 1405,
      "éĢļ": 1406,
      "color": 1407,
      "HLèģ": 1408,
      "HLéĢģæĸĻ": 1409,
      "HLcr": 1410,
      "HLéĩį": 1411,
      "\":\"": 1412,
      "HLnous": 1413,
      "ub": 1414,
      "HLsont": 1415,
      "oug": 1416,
      "HLè¿Ļ": 1417,
      "Ã§": 1418,
      "une": 1419,
      "HLup": 1420,
      "HLãĤŃãĥ£": 1421,
      "ï¼Ĵ": 1422,
      "HLåĩºä¼ļ": 1423,
      "ake": 1424,
      "HLæĽ": 1425,
      "HLtout": 1426,
      "HLæĢİ": 1427,
      "HLour": 1428,
      "88": 1429,
      "ãĤ±": 1430,
      "ase": 1431,
      "HLid": 1432,
      "ï¼Į": 1433,
      "ä»£": 1434,
      "HLå¹´": 1435,
      "HLç½ĳåĿĢ": 1436,
      "æĸĩ": 1437,
      "ick": 1438,
      "HLå¤ļ": 1439,
      "HLäº¤": 1440,
      "HLå¤ĸ": 1441,
      "ï¼ī:": 1442,
      "40": 1443,
      "åħ¨": 1444,
      "HLçµĲ": 1445,
      "mes": 1446,
      "HLéĥ¨": 1447,
      "HLçī¹": 1448,
      "HLä¸ĸ": 1449,
      "ãĤ¿ãĥ¼": 1450,
      "ı¾": 1451,
      "HLå®¶": 1452,
      "éĢŁ": 1453,
      "Ã©n": 1454,
      "HLãģĳ": 1455,
      "ãĥ¼ãĤ¯": 1456,
      "HLbet": 1457,
      "æĪ·": 1458,
      "ï¾ĥ": 1459,
      "è¾": 1460,
      "HLåįģ": 1461,
      "HLæ¸¸": 1462,
      "HLacc": 1463,
      "ee": 1464,
      "ays": 1465,
      "HLçĲ": 1466,
      "ãĤı": 1467,
      "åľ¨": 1468,
      "iques": 1469,
      "vel": 1470,
      "HLçľŁ": 1471,
      "iÃ¨re": 1472,
      "HLãĥľ": 1473,
      "ike": 1474,
      "HLï½": 1475,
      "HLcons": 1476,
      "æĭ": 1477,
      "çĽ®": 1478,
      "HLvot": 1479,
      "ãģĽ": 1480,
      "HLoff": 1481,
      "å½©": 1482,
      "HLè½": 1483,
      "ãģĭãĤī": 1484,
      "%:": 1485,
      "æĮ": 1486,
      "HLthey": 1487,
      "çĶ»": 1488,
      "åĨħ": 1489,
      "HLåº": 1490,
      "pos": 1491,
      "HLæķĻ": 1492,
      "HLæĻ": 1493,
      "33": 1494,
      "HLè¡¨": 1495,
      "HLåĲĮ": 1496,
      "HLçİ¯": 1497,
      "æ¸¸": 1498,
      "HLmin": 1499,
      "ants": 1500,
      "HLãĤ¬": 1501,
      "HLprodu": 1502,
      "HLãĤ¦": 1503,
      "HLç«": 1504,
      "ett": 1505,
      "use": 1506,
      "HLsc": 1507,
      "HLson": 1508,
      "ãĥĿ": 1509,
      "HLãĥĵ": 1510,
      "ãģ£ãģ¨": 1511,
      "io": 1512,
      "HLfe": 1513,
      "ç·": 1514,
      "HLãģıãģł": 1515,
      "¦Ĥ": 1516,
      "99": 1517,
      "HLéķ¿": 1518,
      "äºļ": 1519,
      "HLmore": 1520,
      "Ĭ¶": 1521,
      "ãģ¿": 1522,
      "ãģķãģĦ": 1523,
      "HLãĥĻ": 1524,
      "bet": 1525,
      "ets": 1526,
      "Ã©d": 1527,
      "é¡Į": 1528,
      "__": 1529,
      "æĦı": 1530,
      "HLæĢİä¹Ī": 1531,
      "HLãĥ¯": 1532,
      "HLåĨħ": 1533,
      "ãģĪ": 1534,
      "ãĤĪ": 1535,
      "åıĮ": 1536,
      "è¨Ī": 1537,
      "HLæŀ": 1538,
      "çĦ¶": 1539,
      "HLçĶµ": 1540,
      "HLãģł": 1541,
      "æ°ĳ": 1542,
      "å¸ĥ": 1543,
      "ãĥ³ãĤ¹": 1544,
      "Ļ¨": 1545,
      "ãģļ": 1546,
      "çĶ°": 1547,
      "sq": 1548,
      "åľº": 1549,
      "44": 1550,
      "HLpers": 1551,
      "HLç¬": 1552,
      "ck": 1553,
      "ai": 1554,
      "HLè©": 1555,
      "HLæ¥Ń": 1556,
      "ern": 1557,
      "HLèª": 1558,
      "è·": 1559,
      "HLä½¿": 1560,
      "ãĥĳ": 1561,
      "HLaux": 1562,
      "HLç¤": 1563,
      "HLpo": 1564,
      "æĪı": 1565,
      "âĢľ": 1566,
      "vi": 1567,
      "HLãģĬãĤĬ": 1568,
      "åĭĻ": 1569,
      "HLæĻĤéĸĵ": 1570,
      "HLvotre": 1571,
      "'s": 1572,
      "HLht": 1573,
      "éĩı": 1574,
      "HLï¼": 1575,
      "ãĥİ": 1576,
      "co": 1577,
      "æ³¨": 1578,
      "ãĥªãĤ¢": 1579,
      "HLæµ·": 1580,
      "HLåı¯èĥ½": 1581,
      "åħĥ": 1582,
      "HLãĤµãĤ¤ãĥĪ": 1583,
      "HLåįķåıĮ": 1584,
      "ãĤ»": 1585,
      "HLãģªãģı": 1586,
      "HLlo": 1587,
      "ãĥ³ãĤ¿": 1588,
      "ä»¬": 1589,
      "åı£": 1590,
      "ç¤º": 1591,
      "HLmod": 1592,
      "å©": 1593,
      "ft": 1594,
      "åİ¿": 1595,
      "Ã©l": 1596,
      "HLfin": 1597,
      "HLå»º": 1598,
      "HLsy": 1599,
      "AN": 1600,
      "HLç²": 1601,
      "HLz": 1602,
      "æ´»": 1603,
      "jp": 1604,
      "HLserv": 1605,
      "iff": 1606,
      "HLæĬĢ": 1607,
      "HLæĥħåł±": 1608,
      "ven": 1609,
      "æ°´": 1610,
      "::": 1611,
      "ents": 1612,
      "link": 1613,
      "³»": 1614,
      "å·¥": 1615,
      "åĪ©": 1616,
      "HLass": 1617,
      "çĽŁ": 1618,
      "HLfl": 1619,
      "HLçĶ¨": 1620,
      "è¶": 1621,
      "HLæĪĳ": 1622,
      "HLå¥³æĢ§": 1623,
      "HLåĲĪ": 1624,
      "HLéĽ»": 1625,
      "anc": 1626,
      "HLind": 1627,
      "åĬ¨": 1628,
      "ple": 1629,
      "ãĥķãĤ©": 1630,
      "HLãģıãģłãģķãģĦ": 1631,
      "åĳ³": 1632,
      "ãĥĥãĤ°": 1633,
      "ade": 1634,
      "HLãģ©ãģĨ": 1635,
      "sh": 1636,
      "(:": 1637,
      "(\"": 1638,
      "çĤ¹": 1639,
      "HLèĦ": 1640,
      "HLãģ¦ãĤĭ": 1641,
      "HLone": 1642,
      "iew": 1643,
      "HLæĦı": 1644,
      "æĥ": 1645,
      "HLãĥį": 1646,
      "HLP": 1647,
      "HLæĹ¶æĹ¶": 1648,
      "ãĥ¢": 1649,
      "HLtheir": 1650,
      "å¾Ĺ": 1651,
      "å½ĵ": 1652,
      "éĻħ": 1653,
      "æħ": 1654,
      "]:": 1655,
      "ãģĬ": 1656,
      "é£": 1657,
      "ç«ĭ": 1658,
      "ĭçīĮ": 1659,
      "å½ķ": 1660,
      "HLæ¬": 1661,
      "lect": 1662,
      "HLäºļ": 1663,
      "HLæ£ĭçīĮ": 1664,
      "HLä¾": 1665,
      "æł¡": 1666,
      "HLåĢ": 1667,
      "HLpos": 1668,
      "å¸¸": 1669,
      "HLäºĪ": 1670,
      "HLåīį": 1671,
      ").": 1672,
      "ä¸º": 1673,
      "ãĥĥãĥī": 1674,
      "HLwork": 1675,
      "HLè¨ĺ": 1676,
      "ally": 1677,
      "HLãģĮ": 1678,
      "HLçĽ®": 1679,
      "HLè¡Į": 1680,
      "39": 1681,
      "Ł³": 1682,
      "å·Ŀ": 1683,
      ":#": 1684,
      "åĪ°": 1685,
      "åĬł": 1686,
      "åı¸": 1687,
      "HLçĽ´": 1688,
      "social": 1689,
      "ãĥ¼ãĤ¿": 1690,
      "çŃ": 1691,
      "HLä½¿çĶ¨": 1692,
      "HLåıĤ": 1693,
      "ata": 1694,
      "HLåľ¨": 1695,
      "HLä»ķ": 1696,
      "éĻ¢": 1697,
      "ãĢĮ": 1698,
      "åĵ¡": 1699,
      "HLåĳ": 1700,
      "ä¾Ľ": 1701,
      "ount": 1702,
      "åĽŀ": 1703,
      "cm": 1704,
      "HLæ°´": 1705,
      "HLæ¸¸æĪı": 1706,
      "HLæ¶": 1707,
      "nl": 1708,
      "ible": 1709,
      "æı": 1710,
      "HLæĸĻ": 1711,
      "HLçĲĨ": 1712,
      "å·§": 1713,
      "HLåİŁ": 1714,
      "è£ħ": 1715,
      "åĬ¡": 1716,
      "HLãĥķãĤ¡": 1717,
      "HLåŁº": 1718,
      "ages": 1719,
      "æµ·": 1720,
      "HLãĥĭ": 1721,
      "49": 1722,
      "ãĥĦ": 1723,
      "åĲį": 1724,
      "ãĤ¶": 1725,
      "æĻ": 1726,
      "HLç´ł": 1727,
      "æķ°": 1728,
      "48": 1729,
      "HLmon": 1730,
      "HLæ·": 1731,
      "46": 1732,
      "HLèĤ": 1733,
      "HLç¬¬": 1734,
      "yle": 1735,
      "HLèµĽ": 1736,
      "ä»ĭ": 1737,
      "æºĲ": 1738,
      "ãĥ³ãĤº": 1739,
      "HLãĤıãĤĮ": 1740,
      "ŀĭ": 1741,
      "HLçı¾": 1742,
      "HLgu": 1743,
      "HLãģıãĤĮ": 1744,
      "HLmat": 1745,
      "ãĥ¼ãĥĦ": 1746,
      "ings": 1747,
      "åĻ¨": 1748,
      "HLrec": 1749,
      "«ãĥ¼": 1750,
      "è©": 1751,
      "æĽ": 1752,
      "HLè¾": 1753,
      "HLæ©Ł": 1754,
      "HLãģĽ": 1755,
      "HLdr": 1756,
      "HLem": 1757,
      "cc": 1758,
      "ex": 1759,
      "æ¯Ľ": 1760,
      "¢º": 1761,
      "HLcou": 1762,
      "éļ": 1763,
      "ery": 1764,
      "å®¹": 1765,
      "HLåħ¥": 1766,
      "æł¼": 1767,
      "HLåĽ½éĻħ": 1768,
      "HLå¿ħè¦ģ": 1769,
      "HLç½ĳç«Ļ": 1770,
      "HLåĪ©çĶ¨": 1771,
      "éķ": 1772,
      "ãģĭãģ£": 1773,
      "bre": 1774,
      "ough": 1775,
      "ish": 1776,
      "back": 1777,
      "HLcette": 1778,
      "HLãģĤãģ£": 1779,
      "ãģĵãĤį": 1780,
      "è¼": 1781,
      "ãĤ½": 1782,
      "HLãĤ²": 1783,
      "HLåĽŀ": 1784,
      "HLç¤¾": 1785,
      "HLä¿¡": 1786,
      "æĺİ": 1787,
      "HLwhich": 1788,
      "vent": 1789,
      "HLabout": 1790,
      "aires": 1791,
      "çļ": 1792,
      "HLche": 1793,
      "HLart": 1794,
      "HLthere": 1795,
      "Ãªtre": 1796,
      "Ã©g": 1797,
      "ãĥ¼ãĥ³": 1798,
      "HLè¿Ķ": 1799,
      "HLwhat": 1800,
      "reat": 1801,
      "HLdiff": 1802,
      "HLC": 1803,
      "HLact": 1804,
      "HLæ¼": 1805,
      "ãĥ¡ãĥ³ãĥĪ": 1806,
      "HLç¦": 1807,
      "37": 1808,
      "els": 1809,
      "HLæĿ±": 1810,
      "HLéĽĨ": 1811,
      "HLter": 1812,
      "aint": 1813,
      "åĨĮ": 1814,
      "éĹ´": 1815,
      "åįĹ": 1816,
      "par": 1817,
      "ãĥĻ": 1818,
      "ãĤ¤ãĤº": 1819,
      "ox": 1820,
      "HLsi": 1821,
      "2015": 1822,
      "ãĥĨãĤ£": 1823,
      "HLren": 1824,
      "èº«": 1825,
      "HLcas": 1826,
      "ä»¥": 1827,
      "éħ": 1828,
      "åŁİ": 1829,
      "åķ": 1830,
      "HLåĬłçĽŁ": 1831,
      "HLsol": 1832,
      "HLç¥ŀ": 1833,
      "HLãĥļ": 1834,
      "åıĸ": 1835,
      "HLèµĽè½¦": 1836,
      "ç½®": 1837,
      "åħ·": 1838,
      "HLçĶ·": 1839,
      "HLè£": 1840,
      "HLany": 1841,
      "ession": 1842,
      "ãĤĦ": 1843,
      "ther": 1844,
      "HLä¼ģ": 1845,
      "HLãģ¡ãĤĥ": 1846,
      "Ł¥": 1847,
      "we": 1848,
      "çĿ": 1849,
      "HLãĤ»ãĥĥãĥĪ": 1850,
      "åĳĺ": 1851,
      "HLæ³¨åĨĮ": 1852,
      "HLæĸ¹æ³ķ": 1853,
      "HLtime": 1854,
      "å±ķ": 1855,
      "HLçİ¯äºļ": 1856,
      "è«": 1857,
      "HLéļ": 1858,
      "HLalso": 1859,
      "ãĤ¬": 1860,
      "2020": 1861,
      "ner": 1862,
      "HLå±±": 1863,
      "ian": 1864,
      "Ã¢": 1865,
      "ç¯": 1866,
      "ãĥĶãĥ¼": 1867,
      "mm": 1868,
      "/:": 1869,
      "HLçķ": 1870,
      "HLç®¡": 1871,
      "HLç²¾": 1872,
      "æĥħ": 1873,
      "HLãĤ¹ãĤ¿": 1874,
      "60": 1875,
      "èĬ": 1876,
      "æĻĤ": 1877,
      "HLãģ¨ãģĵãĤį": 1878,
      "»Ĭ": 1879,
      "é¤": 1880,
      "line": 1881,
      "az": 1882,
      "æīĢ": 1883,
      "HLæĬķæ³¨": 1884,
      "HLx": 1885,
      "èī²": 1886,
      "ãĥ³ãĤ¯": 1887,
      "å³": 1888,
      "HLvar": 1889,
      "è¿ĳ": 1890,
      "ange": 1891,
      "31": 1892,
      "HLçĻ»å½ķ": 1893,
      "ry": 1894,
      "HLdon": 1895,
      "HLè¦ĭ": 1896,
      "åŀĭ": 1897,
      "ä½į": 1898,
      "HLæĮĩ": 1899,
      "HLaf": 1900,
      "HLrel": 1901,
      "æģ": 1902,
      "38": 1903,
      "Ãł": 1904,
      "cy": 1905,
      "HLä¸ĸçķĮ": 1906,
      "af": 1907,
      "HLwhen": 1908,
      "HLéħį": 1909,
      "HLbien": 1910,
      "HLtrans": 1911,
      "HLãĤ¿ãĤ¤ãĥ": 1912,
      "éĩİ": 1913,
      "HLprof": 1914,
      "ild": 1915,
      "HLhow": 1916,
      "HLvis": 1917,
      "be": 1918,
      "å¥½": 1919,
      "HLåħĪ": 1920,
      "åı¤": 1921,
      "HLåľ¨çº¿": 1922,
      "ãĥ©ãĥ¼": 1923,
      "HLãģªãĤī": 1924,
      "çĻ": 1925,
      "ication": 1926,
      "äºİ": 1927,
      "ms": 1928,
      "HLãģĦãģŁãģł": 1929,
      "HLeff": 1930,
      "ood": 1931,
      "HLrem": 1932,
      "ãĥ¼ãĥĳ": 1933,
      "HLsome": 1934,
      "ese": 1935,
      "HLå®¢": 1936,
      "HLéĺ²": 1937,
      "ãģ©": 1938,
      "HLæľŁ": 1939,
      "HLãĤ±ãĥ¼ãĤ¹": 1940,
      "HLèĬ": 1941,
      "ouve": 1942,
      "HLtou": 1943,
      "HLãĥ¦": 1944,
      "HLãĤ½": 1945,
      "HLåĪ©æĿ¥": 1946,
      "ode": 1947,
      "HLè¿Ľ": 1948,
      "HLä»¥ä¸Ĭ": 1949,
      "HLå¿ĥ": 1950,
      "HLsal": 1951,
      "HLåĪ¶": 1952,
      "ground": 1953,
      "łĶ": 1954,
      "é«ĺ": 1955,
      "fl": 1956,
      "2014": 1957,
      "elles": 1958,
      "55": 1959,
      "è§£": 1960,
      "HLæ¯Ķ": 1961,
      "ats": 1962,
      "ãģĹãģ¦": 1963,
      "HLæķ°": 1964,
      "min": 1965,
      "HLäºĶ": 1966,
      "æĿĲ": 1967,
      "å¥³": 1968,
      "HLãĥĶ": 1969,
      "HLå¼ķ": 1970,
      "ãĥķãĤ©ãĥ¼ãĥł": 1971,
      "HLè¥¿": 1972,
      "ãĥ³ãĥĹ": 1973,
      "»ç": 1974,
      "HLæİ¨": 1975,
      "HLro": 1976,
      "ãĤĩ": 1977,
      "iel": 1978,
      "iers": 1979,
      "çłģ": 1980,
      "å²": 1981,
      "HLcor": 1982,
      "HLsite": 1983,
      "HLcent": 1984,
      "HLcomme": 1985,
      "HLèĦ±": 1986,
      "HLspe": 1987,
      "æ¬¡": 1988,
      "è·¯": 1989,
      "HLåī": 1990,
      "æ¼": 1991,
      "HLåķı": 1992,
      "HLsim": 1993,
      "ç¨ĭ": 1994,
      "ary": 1995,
      "ãĥ³ãĥĨ": 1996,
      "éĩĮ": 1997,
      "HLconc": 1998,
      "uit": 1999,
      "èĲ": 2000,
      "HLD": 2001,
      "wn": 2002,
      "HLçĬ¶": 2003,
      "ax": 2004,
      "HLç¢º": 2005,
      "HLå¦Ĥ": 2006,
      "èı": 2007,
      "HLsec": 2008,
      "erc": 2009,
      "ãĤ¤ãĥ«": 2010,
      "HLä¹ĭ": 2011,
      "ãĥ¼ãĥĹ": 2012,
      "ãĥ¬ãĤ¹": 2013,
      "ande": 2014,
      "HLèĪ": 2015,
      "ml": 2016,
      "ely": 2017,
      "åĤ": 2018,
      "HLthan": 2019,
      "æ®": 2020,
      "HLmont": 2021,
      "ull": 2022,
      "ãģĭãĤĬ": 2023,
      "oll": 2024,
      "å±Ģ": 2025,
      "éĹ¨": 2026,
      "HLbu": 2027,
      "HLåįĹ": 2028,
      "now": 2029,
      "åĥ": 2030,
      "èį": 2031,
      "HLann": 2032,
      "bs": 2033,
      "57": 2034,
      "ory": 2035,
      "ict": 2036,
      "47": 2037,
      "åģ": 2038,
      "HLwho": 2039,
      "HLè§£": 2040,
      "å¢": 2041,
      "ui": 2042,
      "ÃĹ": 2043,
      "HLjust": 2044,
      "å£«": 2045,
      "ãĥĹãĥª": 2046,
      "ãĥ§": 2047,
      "HLyear": 2048,
      "ãģĿ": 2049,
      "HLbon": 2050,
      "HLãĥĬ": 2051,
      "è°": 2052,
      "åħ¬": 2053,
      "Ã´t": 2054,
      "HLfait": 2055,
      "der": 2056,
      "HLentre": 2057,
      "éĽĨ": 2058,
      "è¥¿": 2059,
      "alis": 2060,
      "HLæ¨": 2061,
      "ç®": 2062,
      "ä»ĺ": 2063,
      "ãĥ¼ãĥĸ": 2064,
      "ices": 2065,
      "HLæĹħ": 2066,
      "HLstr": 2067,
      "æµģ": 2068,
      "ĴĮ": 2069,
      "éķ¿": 2070,
      "æ¬¾": 2071,
      "ãĤ¤ãĥ³ãĥĪ": 2072,
      "ivers": 2073,
      "ber": 2074,
      "ws": 2075,
      "¹ä»ĭ": 2076,
      "HLãĥ«": 2077,
      "HLç©": 2078,
      "HLform": 2079,
      "HLæİĴ": 2080,
      "éł": 2081,
      "HLloc": 2082,
      "æ¡": 2083,
      "HLlike": 2084,
      "HLins": 2085,
      "HLtw": 2086,
      "ä¸į": 2087,
      "HLãĤ·ãĥ£": 2088,
      "get": 2089,
      "uis": 2090,
      ");:": 2091,
      "oci": 2092,
      "HLprov": 2093,
      "ŀį": 2094,
      "HLè¨Ń": 2095,
      "80": 2096,
      "HLip": 2097,
      "HLãĤĪãĤĬ": 2098,
      "è¿Ĳ": 2099,
      "ï¼ģ": 2100,
      "HLåıĸ": 2101,
      "HLç»ı": 2102,
      "HLæ´»": 2103,
      "NG": 2104,
      "view": 2105,
      "ãģĻãĤģ": 2106,
      "jet": 2107,
      "HLever": 2108,
      "ype": 2109,
      "HLå®Į": 2110,
      "HLãĤ³ãĥŁ": 2111,
      "HLconf": 2112,
      "HLinst": 2113,
      "HLæĦŁ": 2114,
      "net": 2115,
      "HLbeen": 2116,
      "HLé¡": 2117,
      "ï½ŀ": 2118,
      "HLsupp": 2119,
      "HLæĶ¯": 2120,
      "Ãī": 2121,
      "itu": 2122,
      "HLpubl": 2123,
      "HLåĩºæĿ¥": 2124,
      "åĨĨ": 2125,
      "éķ·": 2126,
      "oth": 2127,
      "å°ĳ": 2128,
      "è¡¨": 2129,
      "HLret": 2130,
      "HLpol": 2131,
      "HLèĭ±": 2132,
      "59": 2133,
      "HLæīĢ": 2134,
      "HLãģ²": 2135,
      "HLreg": 2136,
      "å¹³": 2137,
      "background": 2138,
      "HLãģĬãģĻ": 2139,
      "ãĥ³ãĤ¸": 2140,
      "HLç´¹ä»ĭ": 2141,
      "HLãģĬãģĻãģĻãĤģ": 2142,
      "HLes": 2143,
      "HLéł": 2144,
      "HLä¼ļç¤¾": 2145,
      "HLR": 2146,
      "teur": 2147,
      "HLéķ¿é¾Ļ": 2148,
      "HLãĤĦãģ£": 2149,
      "HLover": 2150,
      "ãĥĨãĥ«": 2151,
      "å©ļ": 2152,
      "HLu": 2153,
      "HLãĤ·ãĥ§": 2154,
      "HLãĥĹãĥŃ": 2155,
      "ï¼ĵ": 2156,
      "32": 2157,
      "ann": 2158,
      "ãĥ¼ãĥĵ": 2159,
      "HLæĻĤè¨Ī": 2160,
      "cher": 2161,
      "HLçī©": 2162,
      "HLdire": 2163,
      "HLlong": 2164,
      "ath": 2165,
      "itt": 2166,
      "HLM": 2167,
      "HLtem": 2168,
      "HLhttp": 2169,
      "olog": 2170,
      "ational": 2171,
      "HLãģŁãģ¡": 2172,
      "HLéĿ¢": 2173,
      "ject": 2174,
      "Ãªme": 2175,
      "con": 2176,
      "å±ĭ": 2177,
      "HLæľĢæĸ°": 2178,
      "ãĥľ": 2179,
      "HLãģĦãģı": 2180,
      "çİ°": 2181,
      "HLperm": 2182,
      "HLçº": 2183,
      "chn": 2184,
      "HLãĤ³ãĥĶãĥ¼": 2185,
      "HLæ¶Ī": 2186,
      "ãģ°": 2187,
      "HLpet": 2188,
      "HLéĸ¢": 2189,
      "ãĢģ:": 2190,
      "çİ©": 2191,
      "ize": 2192,
      "HLvo": 2193,
      "HLé£Ł": 2194,
      "HLãĤ´": 2195,
      "HLé»": 2196,
      "HLliv": 2197,
      "HLæģ": 2198,
      "HLãĥĿãĤ¤ãĥ³ãĥĪ": 2199,
      "ãĤ·ãĥ": 2200,
      "ãĤ¤ãĥī": 2201,
      "HLç®¡çĲĨ": 2202,
      "çīĪ": 2203,
      "HLåĵģ": 2204,
      "HLhad": 2205,
      "ãĢį": 2206,
      "HLãģĦãģĨ": 2207,
      "HLãģĹãģĭ": 2208,
      "HLdev": 2209,
      "HLother": 2210,
      "ãģŁãģĦ": 2211,
      "HLãĤµãĤ¤ãĤº": 2212,
      "èĩ": 2213,
      "HLå®ļ": 2214,
      "util": 2215,
      "çļĦ": 2216,
      "HLçĶŁæ´»": 2217,
      "HLçłĶ": 2218,
      "unction": 2219,
      "ente": 2220,
      "HLget": 2221,
      "70": 2222,
      "HLæĶ¿": 2223,
      "HLãĥĹãĥ©": 2224,
      "HLinform": 2225,
      "åĪĩ": 2226,
      "www": 2227,
      "90": 2228,
      "style": 2229,
      "ãģĺ": 2230,
      "HLåķıé¡Į": 2231,
      "HLéĹ": 2232,
      "HLé¦ĸ": 2233,
      "HLneed": 2234,
      "HLher": 2235,
      "å¥ĸ": 2236,
      "HLèŃ": 2237,
      "ä»»": 2238,
      "wid": 2239,
      "ys": 2240,
      "HLæĪĳä»¬": 2241,
      "ç«¯": 2242,
      "aine": 2243,
      "HLæĿ¥": 2244,
      "åĪ¶": 2245,
      "HLãģĭãģ£": 2246,
      "HLont": 2247,
      "éĴ": 2248,
      "HLãĥĸãĥ©ãĥ³ãĥī": 2249,
      "ates": 2250,
      "ç¨¿": 2251,
      "HLhis": 2252,
      "HLè³¼": 2253,
      "ãĥļ": 2254,
      "è¡ĵ": 2255,
      "gan": 2256,
      "HLåĽĽ": 2257,
      "urn": 2258,
      "amp": 2259,
      "HLpass": 2260,
      "HLå¿«ä¹Ĳ": 2261,
      "ç³»": 2262,
      "HLsk": 2263,
      "ãĥ¥ãĥ¼": 2264,
      "HLdem": 2265,
      "çľŁ": 2266,
      "æĮģ": 2267,
      "å¤ļ": 2268,
      "©¬": 2269,
      "HLè¿Ķä¿¡": 2270,
      "HLbas": 2271,
      "HLfaire": 2272,
      "éĻĲ": 2273,
      "val": 2274,
      "HLãĥĲãĥĥãĤ°": 2275,
      "ãĤ¤ãĤ¹": 2276,
      "HLcour": 2277,
      "isse": 2278,
      "HLæĺ¨": 2279,
      "HLå·¥ä½ľ": 2280,
      "HLãĥĸãĥ©ãĥĥãĤ¯": 2281,
      "ah": 2282,
      "HLses": 2283,
      "HLhel": 2284,
      "HLgl": 2285,
      "å°ı": 2286,
      "éĥ½": 2287,
      "HLæĹ©": 2288,
      "ãĥ¼ãĤ«ãĥ¼": 2289,
      "´ãĤ£": 2290,
      "ãĥ³ãĥĢ": 2291,
      "è¨ĺ": 2292,
      "HLãĤ³ãĥ¡ãĥ³ãĥĪ": 2293,
      "HLnom": 2294,
      "æĥ³": 2295,
      "HLadd": 2296,
      "HLju": 2297,
      "HLæĭĽ": 2298,
      "åĥı": 2299,
      "red": 2300,
      "HLæ³ķ": 2301,
      "56": 2302,
      "pro": 2303,
      "HLwould": 2304,
      "HLãģĹãģı": 2305,
      "HLç¦ı": 2306,
      "ble": 2307,
      "ĸĦ": 2308,
      "ï¼ķ": 2309,
      "åįļ": 2310,
      "){": 2311,
      "ç±": 2312,
      "HLknow": 2313,
      "HLãģ¨ãģį": 2314,
      "HLèĦ±æ¯Ľ": 2315,
      "åĲİ": 2316,
      "HLå¥½": 2317,
      "HLãģĶ": 2318,
      "ques": 2319,
      "erv": 2320,
      "HLcommun": 2321,
      "ll": 2322,
      "text": 2323,
      "æ²»": 2324,
      "æ¸¯": 2325,
      "HLcomment": 2326,
      "HLatt": 2327,
      "éĶ": 2328,
      "HLæĸĻçĲĨ": 2329,
      "hone": 2330,
      "ied": 2331,
      "ues": 2332,
      "ç´Ħ": 2333,
      "ros": 2334,
      "çĿĢ": 2335,
      "HLed": 2336,
      "åĪĹ": 2337,
      "HLãĥĹãĥ¬": 2338,
      "HLpeut": 2339,
      "ret": 2340,
      "ual": 2341,
      "arge": 2342,
      "åŁŁ": 2343,
      "oire": 2344,
      "HLmet": 2345,
      "lement": 2346,
      "åı¯": 2347,
      "HLsm": 2348,
      "¿Ģ": 2349,
      "HLfil": 2350,
      "æľĽ": 2351,
      "HLåĲįåīį": 2352,
      "ãģĤ": 2353,
      "HLfir": 2354,
      "çķª": 2355,
      "oup": 2356,
      "çĶµ": 2357,
      "HLtechn": 2358,
      "éĺ³": 2359,
      "HLÃªtre": 2360,
      "çģ": 2361,
      "HLãģĤãģª": 2362,
      "HLæľį": 2363,
      "åı·": 2364,
      "HLphot": 2365,
      "HLwere": 2366,
      "HLä»ĬæĹ¥": 2367,
      "HLãģĦãģ£": 2368,
      "HLmay": 2369,
      "HLåŃĲ": 2370,
      "Ã®": 2371,
      "Ã©v": 2372,
      "èĳ": 2373,
      "ton": 2374,
      "æ±Ĥ": 2375,
      "ature": 2376,
      "HLjour": 2377,
      "åºľ": 2378,
      "oul": 2379,
      "HLãĤĤãĤī": 2380,
      "HLæıĲä¾Ľ": 2381,
      "æ¨": 2382,
      "HLthese": 2383,
      "34": 2384,
      "HLits": 2385,
      "ãĥ³ãĥģ": 2386,
      "HLä½ı": 2387,
      "éĹ»": 2388,
      "HLç§ĳ": 2389,
      "æ±Ł": 2390,
      "ussi": 2391,
      "gl": 2392,
      "HLthem": 2393,
      "æľĪ": 2394,
      "HLå¹¿": 2395,
      "iment": 2396,
      "HLãĤ®": 2397,
      "ä¸ī": 2398,
      "ower": 2399,
      "é¦": 2400,
      "æ¹": 2401,
      "HLäº¬": 2402,
      "igh": 2403,
      "HLcert": 2404,
      "ouver": 2405,
      "åĲĳ": 2406,
      "HLlook": 2407,
      "HLåħ±": 2408,
      "å¼ķ": 2409,
      "HLshe": 2410,
      "of": 2411,
      "igne": 2412,
      "HLprogr": 2413,
      "HLæĶ¹": 2414,
      "HLè²¡": 2415,
      "ãĤ®": 2416,
      "HLpost": 2417,
      "ªçĲĥ": 2418,
      "å®¤": 2419,
      "HLç¶": 2420,
      "HLcal": 2421,
      "HLå®ŀ": 2422,
      "tem": 2423,
      "HLåĭķ": 2424,
      "HLtrav": 2425,
      "HLces": 2426,
      "HLãĥ¤": 2427,
      "HLfem": 2428,
      "ante": 2429,
      "HLæĬķç¨¿": 2430,
      "HLeur": 2431,
      "HLçİ°": 2432,
      "Ã©m": 2433,
      "HLcha": 2434,
      "HLprÃ©s": 2435,
      "HLåĲĦ": 2436,
      "è¯·": 2437,
      "ãĢĲ:": 2438,
      "HLè³¼åħ¥": 2439,
      "HLãĤ¹ãĥĪ": 2440,
      "HLæĶ¾": 2441,
      "ç·ļ": 2442,
      "HLevery": 2443,
      "77": 2444,
      "HLãĥĴ": 2445,
      "med": 2446,
      "ov": 2447,
      "HLæ°ĳ": 2448,
      "HLçŁ¥": 2449,
      "HLè¡¨ç¤º": 2450,
      "add": 2451,
      "HLæĻ®": 2452,
      "HLæķ´": 2453,
      "HLè²»": 2454,
      "é¢ĺ": 2455,
      "HLãĤ¹ãĥ¼ãĥĳ": 2456,
      "ãĥ¼ãĥĵãĤ¹": 2457,
      "58": 2458,
      "HLuse": 2459,
      "èŃ·": 2460,
      "HLæĽ´": 2461,
      "è©±": 2462,
      "day": 2463,
      "HLåĦ": 2464,
      "HLãģµ": 2465,
      "HLvol": 2466,
      "è±": 2467,
      "HLop": 2468,
      "HLä¸Ģä¸ª": 2469,
      "HLaussi": 2470,
      "=\"": 2471,
      "ople": 2472,
      "ãĤ¤ãĤ¯": 2473,
      "HLéĩİ": 2474,
      "2012": 2475,
      "ful": 2476,
      "ä¸»": 2477,
      "2013": 2478,
      "æģ¯": 2479,
      "HLæĺİ": 2480,
      "HLãģ³": 2481,
      "HLèĢģ": 2482,
      "ãĥĽ": 2483,
      "åĲĮ": 2484,
      "ãĢĳ:": 2485,
      "HLtous": 2486,
      "HLtrÃ¨s": 2487,
      "content": 2488,
      "HLãĤ¯ãĥ©": 2489,
      "HLä¹Ĳ": 2490,
      "HLob": 2491,
      "HLãģĳãĤĭ": 2492,
      "HLfrance": 2493,
      "ãĥ¼ãĥĨ": 2494,
      "HLãĥģãĤ§": 2495,
      "ution": 2496,
      "Ã©rie": 2497,
      "HLprem": 2498,
      "åĤĻ": 2499,
      "HLmake": 2500,
      "HLvers": 2501,
      "ãĥķãĥĪ": 2502,
      "ãĥŃãĤ°": 2503,
      "HLdi": 2504,
      "HLsom": 2505,
      "HLä¸¤": 2506,
      "ics": 2507,
      "br": 2508,
      "HLçŃ": 2509,
      "HLdep": 2510,
      "hr": 2511,
      "è¿ĩ": 2512,
      "Ģä¹Ī": 2513,
      "äºĽ": 2514,
      "HLãģĹãģķ": 2515,
      "pect": 2516,
      "65": 2517,
      "HLå¡": 2518,
      "HLéľ": 2519,
      "HLnotre": 2520,
      "HLpartic": 2521,
      "HLãĤ²ãĥ¼ãĥł": 2522,
      "HLsans": 2523,
      "HLçĸ": 2524,
      "æŃ£": 2525,
      "HLéĿŀ": 2526,
      "iste": 2527,
      "HLäºļæ¸¸": 2528,
      "åĽ¢": 2529,
      "ç®Ĺ": 2530,
      "led": 2531,
      "æ©": 2532,
      "oi": 2533,
      "HLÃ©tÃ©": 2534,
      "HLinv": 2535,
      "çĶ±": 2536,
      "HLé¦Ļ": 2537,
      "ks": 2538,
      "HLA": 2539,
      "å¿«": 2540,
      "HLä»ķäºĭ": 2541,
      "å¢ĥ": 2542,
      "HLval": 2543,
      "§ĭ": 2544,
      "HLãĤ¯ãĥª": 2545,
      "HLãģĽãĤĭ": 2546,
      "89": 2547,
      "HLleur": 2548,
      "HLgen": 2549,
      "HLæĹł": 2550,
      "HLpage": 2551,
      "ative": 2552,
      "åŃĹ": 2553,
      "HLå®īåħ¨": 2554,
      "è³ª": 2555,
      "è¶Ĭ": 2556,
      "HLinc": 2557,
      "HLéĿĴ": 2558,
      "HLåı°": 2559,
      "æł·": 2560,
      "å§Ķ": 2561,
      "ãĥ«ãĥĪ": 2562,
      "ites": 2563,
      "cess": 2564,
      "å¿µ": 2565,
      "HLãģĤãģªãģŁ": 2566,
      "HLè·": 2567,
      "HLéĬ": 2568,
      "ãĤ¹ãĥĨ": 2569,
      "ocu": 2570,
      "ident": 2571,
      "HLãģĵãģĵ": 2572,
      "HLçĹ": 2573,
      "HLãģĭãģĳ": 2574,
      "æĴ": 2575,
      "äº§": 2576,
      "Ã¨re": 2577,
      "HLãĤ»ãĥĥãĤ¯ãĤ¹": 2578,
      "HLãĥ¬ãĥĩãĤ£": 2579,
      "æħĭ": 2580,
      "raph": 2581,
      "HLdÃ©c": 2582,
      "HLãģ¡ãĤĩ": 2583,
      "43": 2584,
      "å·±": 2585,
      "HLwell": 2586,
      "HLãĥĦ": 2587,
      "HLdesign": 2588,
      "HLãģĹãģ¾ãģĨ": 2589,
      "HLãĤıãģĽ": 2590,
      "HLåĨĻ": 2591,
      "endre": 2592,
      "HLçľĭ": 2593,
      "æĸŃ": 2594,
      "log": 2595,
      "HLcap": 2596,
      "HLåħ³": 2597,
      "HLpeople": 2598,
      "HLans": 2599,
      "HLéĸĭ": 2600,
      "HLincl": 2601,
      "HLrest": 2602,
      "ãĥı": 2603,
      "ç¿": 2604,
      "cept": 2605,
      "ustr": 2606,
      "ott": 2607,
      "HLãĤµãĥ¼ãĥĵãĤ¹": 2608,
      "HLçģ": 2609,
      "HLå¼Ģå¥ĸ": 2610,
      "HLãģĦãģĳ": 2611,
      "http": 2612,
      "å³¶": 2613,
      "HLè°": 2614,
      "HLæĸ°éĹ»": 2615,
      "çİĩ": 2616,
      "HLbo": 2617,
      "ience": 2618,
      "HLæŀģ": 2619,
      "ãĥ¼ãĥŀ": 2620,
      "HLèµĦ": 2621,
      "uc": 2622,
      "ense": 2623,
      "hu": 2624,
      "HLãĤĪãģı": 2625,
      "HLdur": 2626,
      "ç¥": 2627,
      "HLstud": 2628,
      "HLçłģ": 2629,
      "HLæĸ½": 2630,
      "500": 2631,
      "é£Ł": 2632,
      "HLrencont": 2633,
      "HLinto": 2634,
      "HLelle": 2635,
      "HLãģĪãģ¦": 2636,
      "ç¾": 2637,
      "pon": 2638,
      "old": 2639,
      "æĶ¿": 2640,
      "è»Ĭ": 2641,
      "HLca": 2642,
      "istr": 2643,
      "åĳĬ": 2644,
      "HLæ»": 2645,
      "HLä¸ĵ": 2646,
      "Ã»": 2647,
      "HLãĤĢ": 2648,
      "53": 2649,
      "HLdeux": 2650,
      "HLãģ¤ãģĳ": 2651,
      "æĬ¥": 2652,
      "HLafter": 2653,
      "itÃ©s": 2654,
      "HLæĥ": 2655,
      "åĳ½": 2656,
      "ãĥķãĥ¬": 2657,
      "play": 2658,
      "éĢģ": 2659,
      "è´¹": 2660,
      "fore": 2661,
      "âĹ": 2662,
      "HLçĪ": 2663,
      "HLconst": 2664,
      "ç§ĳ": 2665,
      "HLåĤ": 2666,
      "HLthr": 2667,
      "HLãĥ¡ãĥ³ãĤº": 2668,
      "ains": 2669,
      "HLãĥĽãĥĨãĥ«": 2670,
      "HLplace": 2671,
      "HLpeu": 2672,
      "ater": 2673,
      "HLä¸Ńåı¤": 2674,
      "HLä¸ĩåĨĨ": 2675,
      "HLbus": 2676,
      "row": 2677,
      "HLãĤ¹ãĥĨ": 2678,
      "HLgood": 2679,
      "HLå°±": 2680,
      "ç¥ŀ": 2681,
      "HLhome": 2682,
      "\").": 2683,
      "HLèĥ": 2684,
      "HLbel": 2685,
      "HLèĩªå·±": 2686,
      "HLsee": 2687,
      "HLrÃ©s": 2688,
      "HLè²»çĶ¨": 2689,
      "arn": 2690,
      "HLãĥªãĥķãĤ©ãĥ¼ãĥł": 2691,
      "HLonly": 2692,
      "HLæµ·å¤ĸ": 2693,
      "ree": 2694,
      "HLenv": 2695,
      "HLçİĭ": 2696,
      "HLåı¯ä»¥": 2697,
      "æ¢": 2698,
      "åįķ": 2699,
      "èªį": 2700,
      "eng": 2701,
      "HLcompl": 2702,
      "ãģªãĤĬ": 2703,
      "æ©Ł": 2704,
      "HLfam": 2705,
      "HLå¤ª": 2706,
      "å®³": 2707,
      "HLãģĿãĤĵãģª": 2708,
      "HLãĤĦãģĻ": 2709,
      ",.": 2710,
      "HLèĲ": 2711,
      "HLæ¸ħ": 2712,
      "HLéĻĲ": 2713,
      "ç©¶": 2714,
      "ines": 2715,
      "HLmÃªme": 2716,
      "ives": 2717,
      "prÃ¨s": 2718,
      "HLãģĻãģĲ": 2719,
      "æĸ¯": 2720,
      "HLpoint": 2721,
      "HLãĥ¬ãĥĩãĤ£ãĥ¼ãĤ¹": 2722,
      "HLwor": 2723,
      "HLS": 2724,
      "HLnow": 2725,
      "HLqual": 2726,
      "HLãĥĪãĥ©": 2727,
      "HLcontr": 2728,
      "HLmus": 2729,
      "HLhot": 2730,
      "ipt": 2731,
      "éĢł": 2732,
      "HLport": 2733,
      "HLposs": 2734,
      "æį": 2735,
      "HLãĥİ": 2736,
      "æ¶": 2737,
      "âĢĿ": 2738,
      "æĬĢ": 2739,
      "Ĉą": 2740,
      "åĨĽ": 2741,
      "HLç»ĵ": 2742,
      "tps": 2743,
      "HLåľŁ": 2744,
      "HLæ±Ł": 2745,
      "portant": 2746,
      "æİ¥": 2747,
      "HLç·": 2748,
      "HLå½±": 2749,
      "75": 2750,
      "ici": 2751,
      "HLgrat": 2752,
      "HLgrand": 2753,
      "ãģĵãģ": 2754,
      "¡ãĤī": 2755,
      "HLãģĵãģ¡ãĤī": 2756,
      "HLæĢ»": 2757,
      "HLçĶ·æĢ§": 2758,
      "HLèº«": 2759,
      "éĩį": 2760,
      "HLmost": 2761,
      "å®ħ": 2762,
      "HLmes": 2763,
      "çĹ": 2764,
      "ãĥ¼ãĤ·ãĥ§ãĥ³": 2765,
      "åĬ©": 2766,
      "åĮĹ": 2767,
      "ãģ±": 2768,
      "ï¼ļ:": 2769,
      "é¡į": 2770,
      "asse": 2771,
      "HLåĨħå®¹": 2772,
      "HLli": 2773,
      "ils": 2774,
      "HLç¤¾ä¼ļ": 2775,
      "js": 2776,
      "HLä»ĬåĽŀ": 2777,
      "HLhom": 2778,
      "356": 2779,
      "HLæ·±": 2780,
      "æĹı": 2781,
      "HLexp": 2782,
      "width": 2783,
      "èĭ": 2784,
      "HLçĭ": 2785,
      "HLpat": 2786,
      "HLnum": 2787,
      "HLéĢ£": 2788,
      "åİ»": 2789,
      "HLpersonn": 2790,
      "HLæ¡": 2791,
      "HLãĤ¢ãĤ¯": 2792,
      "HLfirst": 2793,
      "onne": 2794,
      "any": 2795,
      "HLmem": 2796,
      "ãģķãĤ": 2797,
      "esse": 2798,
      "HLéĽªçĲĥ": 2799,
      "cript": 2800,
      "HLåĨĻçľŁ": 2801,
      "utilis": 2802,
      "HLaw": 2803,
      "HLãĤĤãģĨ": 2804,
      "èµĦ": 2805,
      "HLtour": 2806,
      "HLtro": 2807,
      "HLback": 2808,
      "HLãģĹãģĭãģĹ": 2809,
      "HLcel": 2810,
      "HLåįģåĪĨ": 2811,
      "HLvery": 2812,
      "86": 2813,
      "é¤Ĳ": 2814,
      "ãģĹãģĦ": 2815,
      "own": 2816,
      "SH": 2817,
      "car": 2818,
      "ider": 2819,
      "HLãĥķãĤ£": 2820,
      "é¡ŀ": 2821,
      "HLå®¢æĪ·": 2822,
      "ating": 2823,
      "HLãģĵãģĨ": 2824,
      "dis": 2825,
      "HLenc": 2826,
      "Łĵ": 2827,
      "HLãĤıãģĳ": 2828,
      "HLãĥĺ": 2829,
      "èĦ": 2830,
      "è«ĩ": 2831,
      "HLãģĹãĤĮ": 2832,
      "HLçĶ»": 2833,
      "ãĤĵãģ¨": 2834,
      "HLåıĳå±ķ": 2835,
      "ãĤ´": 2836,
      "HLèī": 2837,
      "HLãģĹãģ¾ãģĦ": 2838,
      "ç®¡": 2839,
      "alse": 2840,
      "HLè¦ģ": 2841,
      "HLprogram": 2842,
      "HLçĤ¹": 2843,
      "HLãĤ¯ãĥŃ": 2844,
      "att": 2845,
      "èĻ": 2846,
      "HLãģĿãģĹãģ¦": 2847,
      "ä½ķ": 2848,
      "HLåħ¨åĽ½": 2849,
      "alement": 2850,
      "å®ŀ": 2851,
      "HLdata": 2852,
      "HLè²¡å¸ĥ": 2853,
      "HLèį": 2854,
      "èģĺ": 2855,
      "HLquel": 2856,
      "ife": 2857,
      "HLè®¡å·§": 2858,
      "97": 2859,
      "ĭãĥ³ãĤ°": 2860,
      "HLä»Ģä¹Ī": 2861,
      "HLste": 2862,
      "HLåıĤåĬł": 2863,
      "HLthrough": 2864,
      "ci": 2865,
      "ches": 2866,
      "HLmal": 2867,
      "ï¼Ķ": 2868,
      "æ®µ": 2869,
      "HLéĤĢ": 2870,
      "HLbest": 2871,
      "åĪ¥": 2872,
      "HLçļ": 2873,
      "HLsign": 2874,
      "å®¢": 2875,
      "HLçłģçİ©": 2876,
      "å¸Ī": 2877,
      "å¾ĭ": 2878,
      "HLclass": 2879,
      "HLç©º": 2880,
      "HLãĤ¢ãĥ«": 2881,
      "HLplay": 2882,
      "ãĥĲãĥ¼": 2883,
      "HLå¢": 2884,
      "HLmom": 2885,
      "ï½Ĺ": 2886,
      "HLãĤ¹ãĥ¼ãĥĳãĥ¼": 2887,
      "HLsch": 2888,
      "HLi": 2889,
      "èµ·": 2890,
      "mbre": 2891,
      "ç¾İ": 2892,
      "ãģ³": 2893,
      "çµ¦": 2894,
      "HLéĤĢè¯·": 2895,
      "ãĤ³ãĥ³": 2896,
      "HLãģªãģ®": 2897,
      "æ£": 2898,
      "HLmot": 2899,
      "HLgreat": 2900,
      "æĦĽ": 2901,
      "é¡µ": 2902,
      "HLãģķãģĦ": 2903,
      "ez": 2904,
      "ãĥ³ãĤŃ": 2905,
      "oad": 2906,
      "æĴŃ": 2907,
      "HLæĲ": 2908,
      "HLel": 2909,
      "HLãĤĨ": 2910,
      "HLåĽ½å®¶": 2911,
      "çī¹": 2912,
      "fa": 2913,
      "HLåł": 2914,
      "ouse": 2915,
      "å¼Ģ": 2916,
      "HLåĨį": 2917,
      "ãĥĥãĤ·ãĥ": 2918,
      "æŀĲ": 2919,
      "éĽ»": 2920,
      "æĺĵ": 2921,
      "HLãģĦãģ¤": 2922,
      "2011": 2923,
      "HLæ¿Ģ": 2924,
      "tement": 2925,
      "\",": 2926,
      "sd": 2927,
      "ãĥ¼ãĥĲ": 2928,
      "Ãªt": 2929,
      "HLçłĶç©¶": 2930,
      "54": 2931,
      "Â°": 2932,
      "HLhelp": 2933,
      "opp": 2934,
      "HLæīĵ": 2935,
      "HLæĬĢå·§": 2936,
      "ãģĦãģĨ": 2937,
      "æ´²": 2938,
      "HLè§Ħ": 2939,
      "HLtu": 2940,
      "lection": 2941,
      "çŁ¥": 2942,
      "erm": 2943,
      "Ðµ": 2944,
      "HLdro": 2945,
      "HLéĵ": 2946,
      "ãĥ³ãĥĲ": 2947,
      "HLä¿®": 2948,
      "HLopt": 2949,
      "HLåıĹ": 2950,
      "agn": 2951,
      "52": 2952,
      "html": 2953,
      "HLåģ¥": 2954,
      "HLåĳ¨": 2955,
      "Ð¾": 2956,
      "HLprix": 2957,
      "image": 2958,
      "è®¯": 2959,
      "HLãĤ¸ãĥ£": 2960,
      "fin": 2961,
      "HLright": 2962,
      "æľ¯": 2963,
      "æŀĹ": 2964,
      "fe": 2965,
      "ities": 2966,
      "åħ³": 2967,
      "cent": 2968,
      "HLä½ķ": 2969,
      "HLéħĴ": 2970,
      "iter": 2971,
      "ows": 2972,
      "å¦": 2973,
      "ĈĆ": 2974,
      "HLiphone": 2975,
      "eur": 2976,
      "rent": 2977,
      "HLnon": 2978,
      "lex": 2979,
      "HLå²": 2980,
      "HLæ®": 2981,
      "HLéŃ": 2982,
      "ãģ¾ãĤĬ": 2983,
      "HLé¢¨": 2984,
      ").:": 2985,
      "ãĥ¼ãĥģ": 2986,
      "è¨Ń": 2987,
      "æĦŁ": 2988,
      "HLãĥķãĥ©": 2989,
      "HLservice": 2990,
      "HLday": 2991,
      "HLå¯¹": 2992,
      "èªŀ": 2993,
      "HLç¢ºèªį": 2994,
      "ï¼Ĳï¼Ĳ": 2995,
      "iÃ©": 2996,
      "marg": 2997,
      "),:": 2998,
      "HLãģĻãĤĭãģ¨": 2999,
      "HLå°Ĭ": 3000,
      "HLè¶³": 3001,
      "HLæľ¬å½ĵ": 3002,
      "HLhigh": 3003,
      "HLè¨ĺäºĭ": 3004,
      "HLcho": 3005,
      "uch": 3006,
      "ey": 3007,
      "ãĥ¼ãĤŃ": 3008,
      "Ã¨me": 3009,
      "arr": 3010,
      "æľį": 3011,
      "åº·": 3012,
      "´ãĤ£ãĥĪ": 3013,
      "èĢĥ": 3014,
      "æ°Ķ": 3015,
      "èĪ¬": 3016,
      "margin": 3017,
      "HLåĮ»": 3018,
      "IN": 3019,
      "has": 3020,
      "çĤ": 3021,
      "ãĥ¤": 3022,
      "HLæľº": 3023,
      "HLãĥĲãĤ¹": 3024,
      "âĸ": 3025,
      "itions": 3026,
      "HLãĤ¢ãĥĹãĥª": 3027,
      "HLãĤ«ãĥ¼ãĥī": 3028,
      "éª": 3029,
      "HLèħ": 3030,
      "HLèĥ½": 3031,
      "å»º": 3032,
      "HLdou": 3033,
      "HLcham": 3034,
      "HLé¤": 3035,
      "HLãĤ»ãĥķãĥ¬": 3036,
      "HLæŀģéĢŁ": 3037,
      "HLå¹¸": 3038,
      "å½¢": 3039,
      "In": 3040,
      "HLåħ¬åı¸": 3041,
      "æ¡Ī": 3042,
      "ãĥŃãĥ³": 3043,
      "éĸĭ": 3044,
      "HLæłª": 3045,
      "HLç¾": 3046,
      "HLçŁ³": 3047,
      "èĳī": 3048,
      "HLèĮ": 3049,
      "ances": 3050,
      "HLarr": 3051,
      "HLåŃ¦æł¡": 3052,
      "itter": 3053,
      "»çĻĤ": 3054,
      "HLfa": 3055,
      "äºĨ": 3056,
      "è®¡": 3057,
      "quip": 3058,
      "HLçĻ¾": 3059,
      "HLsou": 3060,
      "ä¸ľ": 3061,
      "HLprop": 3062,
      "HLä¸įåı¯": 3063,
      "HLãĥĸãĥŃãĤ°": 3064,
      "ãĤ¹ãĤ¿": 3065,
      "HLãģ¡ãĤĥãĤĵ": 3066,
      "HLq": 3067,
      "HLdec": 3068,
      "HLfac": 3069,
      "ãĤ¹ãĤ¯": 3070,
      "68": 3071,
      "HLäº§": 3072,
      "HLãĤ¹ãĥŀ": 3073,
      "comm": 3074,
      "HLpres": 3075,
      "67": 3076,
      "nav": 3077,
      "HLä¸ľ": 3078,
      "HLãģıãĤĭ": 3079,
      "ç»ı": 3080,
      "HLmany": 3081,
      "è²»": 3082,
      "HLF": 3083,
      "HLvos": 3084,
      "HLèĬ±": 3085,
      "HLãģ¥": 3086,
      "HLãĤĦãĤĬ": 3087,
      "HLéĩįè¦ģ": 3088,
      "ises": 3089,
      "HLå½¼": 3090,
      "HLãģ¾ãģ£": 3091,
      "éĺª": 3092,
      "url": 3093,
      "å°Ķ": 3094,
      "HLãĥĪãĥ¬": 3095,
      "ope": 3096,
      "HLç«ĭ": 3097,
      "ular": 3098,
      "HLmark": 3099,
      "èŀį": 3100,
      "HLair": 3101,
      "HLsl": 3102,
      "ific": 3103,
      "ç´°": 3104,
      "HLéĬĢ": 3105,
      "HLå¼ĢæĪ·": 3106,
      "und": 3107,
      "HLãģĦãģ¨": 3108,
      "HLeven": 3109,
      "HLåħ¬å¼ı": 3110,
      "HLæĭĽèģĺ": 3111,
      "è²©": 3112,
      "HLlog": 3113,
      "0000": 3114,
      "HLæķĻèĤ²": 3115,
      "æ¼Ķ": 3116,
      "HLmed": 3117,
      "HLåĪĿ": 3118,
      "HLå±ķ": 3119,
      "HLãĥķãĤ©": 3120,
      "ãĥ¼ãĥĩ": 3121,
      "åĪ¤": 3122,
      "post": 3123,
      "inc": 3124,
      "HLtop": 3125,
      "HLãģŁãģł": 3126,
      "HLappl": 3127,
      "lectr": 3128,
      "ark": 3129,
      "å§ĭ": 3130,
      "HLãĤ¿ãĤ¤ãĥĹ": 3131,
      "HLspec": 3132,
      "HLway": 3133,
      "HLve": 3134,
      "HLè½¯": 3135,
      "HLbro": 3136,
      "2010": 3137,
      "HLãĤīãĤĮãĤĭ": 3138,
      "ãģķãĤĵ": 3139,
      "sp": 3140,
      "HLçµĲå©ļ": 3141,
      "HLéĽĨåĽ¢": 3142,
      "åĴĮ": 3143,
      "ãģĶ": 3144,
      "HLåħį": 3145,
      "HLãģ¿ãģŁãģĦ": 3146,
      "HLèģĶ": 3147,
      "42": 3148,
      "ium": 3149,
      "æ¥": 3150,
      "ħ§": 3151,
      "ãĢĳãĢĲ": 3152,
      "HLæľįåĬ¡": 3153,
      "ars": 3154,
      "ï¿½:": 3155,
      "åķı": 3156,
      "HLple": 3157,
      "ateur": 3158,
      "HLquest": 3159,
      "HLæĹ¶éĹ´": 3160,
      "HLÐ": 3161,
      "ily": 3162,
      "æĿĳ": 3163,
      "éĴ±": 3164,
      "erg": 3165,
      "ä¿Ŀ": 3166,
      "HLä¸Ńå¿ĥ": 3167,
      "**": 3168,
      "åī": 3169,
      "æľ¨": 3170,
      "but": 3171,
      "äºĮ": 3172,
      "HLä»ĸ": 3173,
      "ule": 3174,
      "Ã©p": 3175,
      "ables": 3176,
      "79": 3177,
      "ãģ¦ãĤĤ": 3178,
      "HLãĥīãĥ©": 3179,
      "ãģĸ": 3180,
      "éħį": 3181,
      "HLçĽ¸æīĭ": 3182,
      "HLprofession": 3183,
      "HLonline": 3184,
      "HLçĬ¶æħĭ": 3185,
      "HLkm": 3186,
      "elf": 3187,
      "HLå¸Į": 3188,
      "åıĬ": 3189,
      "çĻ½": 3190,
      "41": 3191,
      "ãĥķãĤ£": 3192,
      "HLwant": 3193,
      "HLå¤§éĺª": 3194,
      "HLåį³": 3195,
      "HLstart": 3196,
      "illes": 3197,
      "åķĨ": 3198,
      "ãĥ¼ãĥĸãĥ«": 3199,
      "æ»": 3200,
      "als": 3201,
      "è³ĩ": 3202,
      "HLè¶ħ": 3203,
      "HLbook": 3204,
      "HLåħŃ": 3205,
      "HLorgan": 3206,
      "ãĥĥãĤ·ãĥ¥": 3207,
      "HLåįĬ": 3208,
      ":\"": 3209,
      "font": 3210,
      "ãĢľ": 3211,
      "HLread": 3212,
      "HLãģķãĤī": 3213,
      "è¨Ģ": 3214,
      "HLãģıãĤĮãĤĭ": 3215,
      "HLworld": 3216,
      "ãĥ¼ãĥĬ": 3217,
      "anÃ§": 3218,
      "HLçĻ½": 3219,
      "only": 3220,
      "HLsub": 3221,
      "era": 3222,
      "ãĤ¤ãĥ¤": 3223,
      "HLintern": 3224,
      "HLçĽ¸è«ĩ": 3225,
      "ç¦": 3226,
      "HLãĤ¹ãĥĿ": 3227,
      "HLéĤ£": 3228,
      "95": 3229,
      "right": 3230,
      "HLsous": 3231,
      "HLèĳ": 3232,
      "HLè½¯ä»¶": 3233,
      "èĥ": 3234,
      "iles": 3235,
      "HLåŃĺ": 3236,
      "yp": 3237,
      "ãĥ³ãĤ»": 3238,
      "HLéĢŁ": 3239,
      "cn": 3240,
      "HLjo": 3241,
      "HLãĥĩãĤ£": 3242,
      "HLç¨ĭ": 3243,
      "HLæ¼Ķ": 3244,
      "HLãģ¡ãĤĩãģ£ãģ¨": 3245,
      "ãĤ©": 3246,
      "HLä»ĭ": 3247,
      "links": 3248,
      "HLå§": 3249,
      "orte": 3250,
      "HLåıĭ": 3251,
      "HLå¤§åŃ¦": 3252,
      "ï¼ħ": 3253,
      "HLprom": 3254,
      "HLãģ¾ãģļ": 3255,
      "åĶ": 3256,
      "HLãģ¾ãģł": 3257,
      "HLå¡Ĺ": 3258,
      "HLåħ¶": 3259,
      "ãĥĥãĥĶ": 3260,
      "HLæ²¡": 3261,
      "HLæĹħè¡Į": 3262,
      "HLåħ«": 3263,
      "ãĥ¥ãĤ¦": 3264,
      "ug": 3265,
      "HLãģĺ": 3266,
      "arm": 3267,
      "ãĥĸãĥ«": 3268,
      "HLæ¢": 3269,
      "ãĤ¯ãĥĪ": 3270,
      "å¼µ": 3271,
      "order": 3272,
      "èŃĺ": 3273,
      "HLdonn": 3274,
      "HLdel": 3275,
      "HLãģ¾ãģ¨": 3276,
      "ãĥķãĤ¡": 3277,
      "HLblack": 3278,
      "HLæĹ©é¤Ĳ": 3279,
      "HLäº¬éĥ½": 3280,
      "æ©Ļ": 3281,
      "ior": 3282,
      "ool": 3283,
      "å¤®": 3284,
      "è¿Ľ": 3285,
      "HLä¹Ĳæ©Ļ": 3286,
      "HLå®¢æĪ·ç«¯": 3287,
      "HLéª": 3288,
      "HLæĿ±äº¬": 3289,
      "©çĤ¹": 3290,
      "abil": 3291,
      "HLè¨Ī": 3292,
      "HLè®°": 3293,
      "--": 3294,
      "ãĤ¼": 3295,
      "iness": 3296,
      "vert": 3297,
      "çº§": 3298,
      "HLinformation": 3299,
      "uf": 3300,
      "300": 3301,
      "HLT": 3302,
      "åħī": 3303,
      "HLãĥ¡ãĥ¼ãĥ«": 3304,
      "HLplan": 3305,
      "HLshould": 3306,
      "HLãĤ«ãĥ©ãĥ¼": 3307,
      "HLç¬¬ä¸Ģ": 3308,
      "51": 3309,
      "çĭ": 3310,
      "HLcould": 3311,
      "HLrequ": 3312,
      "ãĤ¸ãĤ§": 3313,
      "HLéĻĲå®ļ": 3314,
      "HLåįļ": 3315,
      "HLå½¢": 3316,
      "HLchr": 3317,
      "³ç´°": 3318,
      "HLfon": 3319,
      "ash": 3320,
      "HLä¸ĢèĪ¬": 3321,
      "err": 3322,
      "HLexper": 3323,
      "HLtwo": 3324,
      "HLhere": 3325,
      "HLä½į": 3326,
      "HLtemps": 3327,
      "HLæİĴåĪĹ": 3328,
      "ote": 3329,
      "æĺŁ": 3330,
      "HLach": 3331,
      "ä¹³": 3332,
      "HLãģĦãģį": 3333,
      "HLæľĢå¤§": 3334,
      "count": 3335,
      "Ĥ¬": 3336,
      "HLwhere": 3337,
      "åİŁ": 3338,
      "HLaff": 3339,
      "ï¼ĸ": 3340,
      "ï¼Ī:": 3341,
      "HLèª¿": 3342,
      "HLservices": 3343,
      "¾³": 3344,
      "å®ĺ": 3345,
      "ank": 3346,
      "HLæľª": 3347,
      "aking": 3348,
      "HLåĪĨæŀĲ": 3349,
      "HLcur": 3350,
      "not": 3351,
      "HLfind": 3352,
      "HLåĵª": 3353,
      "ãĥ¼ãĥ©": 3354,
      "è¯Ŀ": 3355,
      "HLè©³ç´°": 3356,
      "ave": 3357,
      "HLcle": 3358,
      "HLãĤ¢ãĤ¤ãĥ": 3359,
      "èŃ°": 3360,
      "HLãĥ¦ãĥĭ": 3361,
      "'t": 3362,
      "DE": 3363,
      "ek": 3364,
      "HLcv": 3365,
      "HLé¢Ħ": 3366,
      "item": 3367,
      "ãĥ³ãĥĳ": 3368,
      "æĪ¿": 3369,
      "HLçµĲæŀľ": 3370,
      "HLæ¥ŃèĢħ": 3371,
      "HLãĤ¹ãĤŃ": 3372,
      "åįİ": 3373,
      "...": 3374,
      "ãĤ±ãĥĥãĥĪ": 3375,
      "HLãĥįãĥĥãĥĪ": 3376,
      "ieux": 3377,
      "icle": 3378,
      "å½±": 3379,
      "HLè®¾": 3380,
      "HLé£ŀ": 3381,
      "jour": 3382,
      "HLexpl": 3383,
      "èĮ": 3384,
      "iver": 3385,
      "è®¾": 3386,
      "HLwww": 3387,
      "HLãĥķãĤ§": 3388,
      "èī¯": 3389,
      "arch": 3390,
      "çīĩ": 3391,
      "HLãĥģãĥ£": 3392,
      "HLå¥³åŃĲ": 3393,
      "HLãģªãģ®ãģ§": 3394,
      "{\"": 3395,
      "HLåĦª": 3396,
      "HLåħħ": 3397,
      "HLä»Ĭå¹´": 3398,
      "ustom": 3399,
      "åĦ": 3400,
      "HLdid": 3401,
      "HLcre": 3402,
      "aille": 3403,
      "ãĥ¼ãĤ¿ãĥ¼": 3404,
      "HLæĹ©çĤ¹": 3405,
      "Re": 3406,
      "atch": 3407,
      "HLéĢī": 3408,
      "AA": 3409,
      "HLfree": 3410,
      "Ã©lÃ©": 3411,
      "HLnos": 3412,
      "å¾ħ": 3413,
      "åĪĿ": 3414,
      "ieu": 3415,
      "HLåĮħ": 3416,
      "è¦ĭ": 3417,
      "HLä»¥ä¸ĭ": 3418,
      "ision": 3419,
      "HLéģĭ": 3420,
      "ãĥįãĥ«": 3421,
      "HLè³ĩ": 3422,
      "HLè£ħ": 3423,
      "ute": 3424,
      "HLown": 3425,
      "HLä½ľåĵģ": 3426,
      "HLç¨³": 3427,
      "æ´¥": 3428,
      "HLæļ": 3429,
      "HLåįĥ": 3430,
      "HLãĥķãĥ¬": 3431,
      "çľģ": 3432,
      "åħ¬åı¸": 3433,
      "ćą": 3434,
      "HLpop": 3435,
      "HLend": 3436,
      "ards": 3437,
      "HLvari": 3438,
      "è±¡": 3439,
      "HLé¦Ļæ¸¯": 3440,
      "ba": 3441,
      "2007": 3442,
      "HLç³»": 3443,
      "HLmade": 3444,
      "HLhand": 3445,
      "ients": 3446,
      "HLãģĻãģİ": 3447,
      "AP": 3448,
      "alk": 3449,
      "HLsex": 3450,
      "HLä»£è¡¨": 3451,
      "HLå°Ĭé¾Ļ": 3452,
      "åĽł": 3453,
      "HLjus": 3454,
      "HLãĥ¡ãĥ¼ãĤ«ãĥ¼": 3455,
      "HLçĶ¨åĵģ": 3456,
      "HLyears": 3457,
      "98": 3458,
      "HLvi": 3459,
      "èĬ±": 3460,
      "book": 3461,
      "HLpa": 3462,
      "HLæµģ": 3463,
      "DI": 3464,
      "HLmill": 3465,
      "HLè§Ĩ": 3466,
      "HLæ©Łèĥ½": 3467,
      "ãĤ·ãĥ§ãĥ³": 3468,
      "HLå£": 3469,
      "HLnouv": 3470,
      "éĻ¤": 3471,
      "åĸĦ": 3472,
      "HLãģĦãģŁãģłãģį": 3473,
      "display": 3474,
      "HLlib": 3475,
      "HLå¤©ç": 3476,
      "HLcond": 3477,
      "æł¹": 3478,
      "HLdet": 3479,
      "HLproduct": 3480,
      "HLsav": 3481,
      "HLæľĢé«ĺ": 3482,
      "âĤ¬": 3483,
      "HLèİ": 3484,
      "HLä¼ģä¸ļ": 3485,
      "èĹ": 3486,
      "HLweb": 3487,
      "HLthen": 3488,
      "ï¿½ï¿½ï¿½ï¿½": 3489,
      "å¸«": 3490,
      "HLèĢĥ": 3491,
      "ZH": 3492,
      "logos": 3493,
      "HLæłªå¼ı": 3494,
      "èıľ": 3495,
      "ina": 3496,
      "HLåĿ": 3497,
      "HLé¾Ļ": 3498,
      "HLãģªãģĭãģ£": 3499,
      "ãģĭãĤĭ": 3500,
      "HLåĪĨå½©": 3501,
      "ãĢį:": 3502,
      "HLgÃ©n": 3503,
      "HLcher": 3504,
      "ĩçĶ¨": 3505,
      "HLgar": 3506,
      "HLæĹĹ": 3507,
      "HLåį°": 3508,
      "hing": 3509,
      "HLext": 3510,
      "wsa": 3511,
      "for": 3512,
      "HLæ³¨æĦı": 3513,
      "velop": 3514,
      "km": 3515,
      "ts": 3516,
      "ides": 3517,
      "HLéĢļè²©": 3518,
      "HLå¸ĮæľĽ": 3519,
      "HLdocu": 3520,
      "cause": 3521,
      "HLãĥĨãĥ¬": 3522,
      "function": 3523,
      "HLçĥ": 3524,
      "Ã©ra": 3525,
      "HLjan": 3526,
      "fo": 3527,
      "åįģ": 3528,
      "HLdiffer": 3529,
      "HLãģĹãģ¾ãģ£": 3530,
      "HLæİ¥": 3531,
      "HLåĢŁ": 3532,
      "oo": 3533,
      "rÃ©": 3534,
      "HLprÃ©": 3535,
      "HLlove": 3536,
      "HLsupport": 3537,
      "aw": 3538,
      "HLåĸ": 3539,
      "HLsuch": 3540,
      "2009": 3541,
      "HLtype": 3542,
      "ç¨®": 3543,
      "åº§": 3544,
      "éĢ£": 3545,
      "æ²³": 3546,
      "HLnombre": 3547,
      "Ĵ°": 3548,
      "ital": 3549,
      "ãģıãĤĬ": 3550,
      "media": 3551,
      "EN": 3552,
      "ince": 3553,
      "HLãĤ¢ãĥĥãĥĹ": 3554,
      "HLsuper": 3555,
      "ends": 3556,
      "ission": 3557,
      "HLmax": 3558,
      "HLéĥ¨åĪĨ": 3559,
      "HLå¦": 3560,
      "åħĪ": 3561,
      "HLface": 3562,
      "HLå¤ļå°ĳ": 3563,
      "1000": 3564,
      "oss": 3565,
      "64": 3566,
      "ãĥĩãĥ«": 3567,
      "HLwr": 3568,
      "HLå¼ķè¶Ĭ": 3569,
      "ns": 3570,
      "ãĥ³ãĤ¿ãĥ¼": 3571,
      "èĩª": 3572,
      "HLÃī": 3573,
      "imes": 3574,
      "HLãĤıãģ£": 3575,
      "HLrÃ©g": 3576,
      "·åıĸ": 3577,
      "ãĥ©ãĥł": 3578,
      "ãĤ¤ãĥ´ãĤ£ãĥĪ": 3579,
      "HLåŁİ": 3580,
      "HLref": 3581,
      "HLprocess": 3582,
      "HLcustom": 3583,
      "HLbecause": 3584,
      "HLåģ¥åº·": 3585,
      "HLæľĢè¿ĳ": 3586,
      "å£ģ": 3587,
      "HLbusiness": 3588,
      "ĵį": 3589,
      "ody": 3590,
      "HLãģĨãģ¡": 3591,
      "87": 3592,
      "by": 3593,
      "ãĥ©ãĤ¹": 3594,
      "HLç®": 3595,
      "HLãĤ·ãĥ¥": 3596,
      "abl": 3597,
      "ten": 3598,
      "éº": 3599,
      "HLmerc": 3600,
      "HLãĥŀãĥ³ãĤ": 3601,
      "HLæ¸©": 3602,
      "HLess": 3603,
      "HLæ¾³": 3604,
      "HLfour": 3605,
      "HLåŁºæľ¬": 3606,
      "HLãĥĩãĤ¶": 3607,
      "HLç§»": 3608,
      "('": 3609,
      "å¡": 3610,
      "HLutilis": 3611,
      "HLè¿ĳ": 3612,
      "HLéĿŀå¸¸": 3613,
      "HLlast": 3614,
      "the": 3615,
      "çĽ´": 3616,
      "çĬ¶": 3617,
      "HLcro": 3618,
      "HLè¿½": 3619,
      "ales": 3620,
      "HLåĪĽ": 3621,
      "HLæĪ¿": 3622,
      "HLç¿": 3623,
      "HLè±": 3624,
      "acc": 3625,
      "æŃ©": 3626,
      "HLtake": 3627,
      "HLæŃ¦": 3628,
      "æŃ¢": 3629,
      "part": 3630,
      "uwsa": 3631,
      "HLæĿİ": 3632,
      "____": 3633,
      "adding": 3634,
      "HLçª": 3635,
      "ited": 3636,
      "HLåıį": 3637,
      "HLç¼": 3638,
      "HLmuch": 3639,
      "å±ŀ": 3640,
      "ãĥķãĤ§": 3641,
      "ãĥĵãĥ¥ãĥ¼": 3642,
      "ç¯ĩ": 3643,
      "ubl": 3644,
      "HLé©¬": 3645,
      "äºĶ": 3646,
      "HLå±ĭ": 3647,
      "ç©į": 3648,
      "HLç´łæĿĲ": 3649,
      "ning": 3650,
      "HLsam": 3651,
      "HLæĸĩåĮĸ": 3652,
      "æ³ģ": 3653,
      "HLä½ıå®ħ": 3654,
      "man": 3655,
      "HLãģ¨ãģ¦ãĤĤ": 3656,
      "HLsys": 3657,
      "çĪ": 3658,
      "ãĥĬãĥ«": 3659,
      "ç§į": 3660,
      "HLéħĴåºĹ": 3661,
      "HLãģ¾ãģ¨ãĤģ": 3662,
      "ãĥ¥ãĤ¢": 3663,
      "HLä¾¿": 3664,
      "ãģĴ": 3665,
      "äº¤": 3666,
      "HLpc": 3667,
      "HLçĽ¸åł´": 3668,
      "è®®": 3669,
      "Ã©tÃ©": 3670,
      "ç©º": 3671,
      "HLãģĮãĤĬ": 3672,
      "ene": 3673,
      "HLlors": 3674,
      "HLæĬ¥": 3675,
      "HLãĤıãĤĬ": 3676,
      "ç´ł": 3677,
      "HLå°±æĺ¯": 3678,
      "reen": 3679,
      "atique": 3680,
      "HLä¸Ģçķª": 3681,
      "ãĢĤ:": 3682,
      "HLä¼ģæ¥Ń": 3683,
      "HLçĭ¬": 3684,
      "}:": 3685,
      "HLide": 3686,
      "HLdern": 3687,
      "HLdevelop": 3688,
      "éģĶ": 3689,
      "HLãĥ©ãĤ¤ãĥ": 3690,
      "ences": 3691,
      "åıĭ": 3692,
      "HLè¿ĺ": 3693,
      "HLèģ·": 3694,
      "cription": 3695,
      "HLå®īå¿ĥ": 3696,
      "æĻ¯": 3697,
      ">:": 3698,
      "work": 3699,
      "HLè¿Ľè¡Į": 3700,
      "HLåıª": 3701,
      "HLæł¼": 3702,
      "HLæ¹": 3703,
      "å¤´": 3704,
      "HLexc": 3705,
      "HLãĥĸãĥ«": 3706,
      "HLsaid": 3707,
      "HLdepuis": 3708,
      "83": 3709,
      "HLãģªãģĹ": 3710,
      "ref": 3711,
      "HLwhile": 3712,
      "HLæĺł": 3713,
      "HLåıĳçĶµ": 3714,
      "uk": 3715,
      "HLsaint": 3716,
      "å¸Ń": 3717,
      "ãĥĥãĤ·ãĥ§ãĥ³": 3718,
      "ãĤĵãģ©": 3719,
      "false": 3720,
      "ãĥªãĥ¼ãĤº": 3721,
      "ç«ł": 3722,
      "96": 3723,
      "HLå©": 3724,
      "æĿ¿": 3725,
      "HLãĤ¢ãĤ¦": 3726,
      "HLãģ»ãģĨ": 3727,
      "Ã¹": 3728,
      "HLãģĦãģĭ": 3729,
      "ãģ£ãģĭãĤĬ": 3730,
      "HLãģķãĤīãģ«": 3731,
      "cle": 3732,
      "HLdom": 3733,
      "ãĤ¹ãĥĨãĥł": 3734,
      "HLæº": 3735,
      "ather": 3736,
      "æµİ": 3737,
      "HLpublic": 3738,
      "HLãĤĦãģĻãģĦ": 3739,
      "HLlet": 3740,
      "HLtot": 3741,
      "HLavant": 3742,
      "HLéĹ®": 3743,
      "çĸ": 3744,
      "HLlife": 3745,
      "HLåĪ¤": 3746,
      "Ãªte": 3747,
      "HLcontin": 3748,
      "ibil": 3749,
      "HLéľĢ": 3750,
      "HLæĸ°éĹ»ç½ĳ": 3751,
      "HLbar": 3752,
      "HLæĶ¶": 3753,
      "HLmeille": 3754,
      "je": 3755,
      "HLä¼ĺ": 3756,
      "pons": 3757,
      "ãģ¶": 3758,
      "HLãģĹãģ¿": 3759,
      "æĤ": 3760,
      "left": 3761,
      "äºķ": 3762,
      "åı²": 3763,
      "èĪ°": 3764,
      "inter": 3765,
      "ä¸ĸ": 3766,
      "ãĥ³ãĤµ": 3767,
      "HLshow": 3768,
      "HLé»Ħ": 3769,
      "HLinclud": 3770,
      "HLencore": 3771,
      "ï¼ĺ": 3772,
      "ãĥ©ãĤ¤ãĥ³": 3773,
      "HLå¿«éĢŁ": 3774,
      "ari": 3775,
      "HLÃ©g": 3776,
      "HLè¨Ģ": 3777,
      "HLå¼Ģåħĥ": 3778,
      "insi": 3779,
      "HLå¡Ĺè£ħ": 3780,
      "ãĤ¦ãĥ³": 3781,
      "HLæĢ§": 3782,
      "ãĥ¼ãĥĨãĤ£": 3783,
      "HLsocial": 3784,
      "HLtoutes": 3785,
      "HLãģłãģĭãĤī": 3786,
      "èĲ¥": 3787,
      "ãĥ³ãĤŃãĥ³ãĤ°": 3788,
      "padding": 3789,
      "HLok": 3790,
      "HLæľĪ": 3791,
      "HLãģ¤ãģĦ": 3792,
      "ollow": 3793,
      "85": 3794,
      "vers": 3795,
      "HLainsi": 3796,
      "HLeas": 3797,
      "ograph": 3798,
      "Ã§a": 3799,
      "HLç¨ĭåº¦": 3800,
      "HLæľ¨": 3801,
      "HLåŃĲä¾Ľ": 3802,
      "HLãģİ": 3803,
      "ãĥ¼ãĥª": 3804,
      "æĶ¾": 3805,
      "position": 3806,
      "HLev": 3807,
      "ä¿®": 3808,
      "HLçı¾åľ¨": 3809,
      "ha": 3810,
      "éŁ³": 3811,
      "HLnouve": 3812,
      "nement": 3813,
      "HLãĤŃãĥĥãĥģ": 3814,
      "ç¬": 3815,
      "å¾·": 3816,
      "HLçī©ä»¶": 3817,
      "HLconse": 3818,
      "HLæĿ¡": 3819,
      "HLæ°¸": 3820,
      "HLdonc": 3821,
      "size": 3822,
      "ifs": 3823,
      "HLå¸¸": 3824,
      "HLèĩªçĦ¶": 3825,
      "HLæ²³": 3826,
      "JI": 3827,
      "HLåı£": 3828,
      "HLåĽł": 3829,
      "press": 3830,
      "HLset": 3831,
      "ä¼ļç¤¾": 3832,
      "èīĩ": 3833,
      "HLæłªå¼ıä¼ļç¤¾": 3834,
      "aur": 3835,
      "å¤«": 3836,
      "è§Ĩ": 3837,
      "HLè¢": 3838,
      "HLvie": 3839,
      "è§Ħ": 3840,
      "HLsÃ©": 3841,
      "HLmag": 3842,
      "HLbeau": 3843,
      "HLcompany": 3844,
      "HLlui": 3845,
      "ves": 3846,
      "HLãĤĤãģ¡": 3847,
      "HLåĭķçĶ»": 3848,
      "nes": 3849,
      "HLä½ľæ¥Ń": 3850,
      "HLç¡": 3851,
      "HLoffr": 3852,
      "ctions": 3853,
      "HLäºĮæīĭ": 3854,
      "ãĤ¤ãĤ¢": 3855,
      "HLå·¨": 3856,
      "HLbefore": 3857,
      "HLpay": 3858,
      "HLparis": 3859,
      "HLå¼·": 3860,
      "HLãģ©ãģĵ": 3861,
      "HLæĹĹèĪ°": 3862,
      "84": 3863,
      "uits": 3864,
      "HLsw": 3865,
      "eric": 3866,
      "HLçİ©": 3867,
      "yl": 3868,
      "HLãĥ¢ãĥĩãĥ«": 3869,
      "ãĥĿãĥ¼ãĥĪ": 3870,
      "HLsour": 3871,
      "HLmen": 3872,
      "ention": 3873,
      "HLãģĭãĤĮ": 3874,
      "HLåł´æīĢ": 3875,
      "HLris": 3876,
      "HLãģĵãĤĵãģª": 3877,
      "HLæľīéĻĲ": 3878,
      "HLå¹¸è¿Ĳ": 3879,
      "ï¼Ĺ": 3880,
      "ä¸ĩ": 3881,
      "æŁ": 3882,
      "HLused": 3883,
      "HLcoun": 3884,
      "agement": 3885,
      "no": 3886,
      "HLrepr": 3887,
      "HLãĥĭãĥ¥": 3888,
      "HLå¦Ĥä½ķ": 3889,
      "HLå¾®": 3890,
      "HLbi": 3891,
      "HLæĸĻéĩĳ": 3892,
      "HLlot": 3893,
      "rel": 3894,
      "HLãģĦãĤį": 3895,
      "ãĥ¬ãĥĥãĥĪ": 3896,
      "ANG": 3897,
      "è¼ĥ": 3898,
      "400": 3899,
      "por": 3900,
      "éĥ": 3901,
      "rol": 3902,
      "æıĽ": 3903,
      "HLæ¿Ģå®ī": 3904,
      "HLpays": 3905,
      "HLils": 3906,
      "çĮ": 3907,
      "å¼·": 3908,
      "HLåľ°åŁŁ": 3909,
      "HLeffect": 3910,
      "HLãĥĨãĥ¬ãĥĵ": 3911,
      "border": 3912,
      "ement": 3913,
      "HLæ³¨æĸĩ": 3914,
      "ï½Ĺï½Ĺ": 3915,
      "HLãģ¾ãģ¾": 3916,
      "HLaccess": 3917,
      "HLãĤ¬ãĤ¹": 3918,
      "çĥ": 3919,
      "HLsujet": 3920,
      "HLéģİ": 3921,
      "HLãĤ¢ãĤ¯ãĤ»": 3922,
      "HLãģ«": 3923,
      ");": 3924,
      "çŁ³": 3925,
      "HLreal": 3926,
      "HLalors": 3927,
      "HLãģŁãģı": 3928,
      "HLhotel": 3929,
      "ãĥªãĤ«": 3930,
      "HLåı¤": 3931,
      "HLprote": 3932,
      "iens": 3933,
      "HLçĹħ": 3934,
      "AO": 3935,
      "HLtest": 3936,
      "HLå¤±": 3937,
      "HLrecher": 3938,
      "HLçĽ´æĴŃ": 3939,
      "HLenf": 3940,
      "å¤ĩ": 3941,
      "ä¾ĭ": 3942,
      "HLäºļæ´²": 3943,
      "HLsoci": 3944,
      "read": 3945,
      "çİĭ": 3946,
      "HLåħ·": 3947,
      "itle": 3948,
      "come": 3949,
      "iÃ¨res": 3950,
      "HLéĸĢ": 3951,
      "ãĥ¬ãĥ¼": 3952,
      "HLsimple": 3953,
      "put": 3954,
      "HLhum": 3955,
      "HLçķª": 3956,
      "ced": 3957,
      "HLligne": 3958,
      "âĢ¦": 3959,
      "igation": 3960,
      "è¶³": 3961,
      "mp": 3962,
      "HLB": 3963,
      "HLå½©": 3964,
      "HLéĢ±": 3965,
      "HLä¸Ńå¤®": 3966,
      "HLagain": 3967,
      "HLæĦıåĳ³": 3968,
      "ãģĺãĤģ": 3969,
      "anÃ§ais": 3970,
      "HLçĨ": 3971,
      "æĿ±": 3972,
      "HLmob": 3973,
      "æŃ¥": 3974,
      "HLæ¯Ķè¼ĥ": 3975,
      "HLmult": 3976,
      "ãģĹãĤĥ": 3977,
      "HLtrad": 3978,
      "HLä½įç½®": 3979,
      "76": 3980,
      "CH": 3981,
      "åĩĨ": 3982,
      "HLãĤ·ãĤ¹ãĥĨãĥł": 3983,
      "',:": 3984,
      "ãĥ¼ãĥĢ": 3985,
      "å®ģ": 3986,
      "HLçľŁäºº": 3987,
      "èĲ½": 3988,
      "HLåħįè´¹": 3989,
      "HLÃ§a": 3990,
      "HLfois": 3991,
      "ãĥ³ãĥĦ": 3992,
      "HLG": 3993,
      "HLåĴĮ": 3994,
      "HLrapp": 3995,
      "HLåŃ¦çĶŁ": 3996,
      "HLä»£çĲĨ": 3997,
      "HLäº¤æµģ": 3998,
      "HLhttps": 3999,
      "HLæĺ¨å¤©": 4000,
      "HLenvir": 4001,
      "HLä¸º": 4002,
      "2000": 4003,
      "ivid": 4004,
      "oute": 4005,
      "ason": 4006,
      "isation": 4007,
      "HLrob": 4008,
      "HLå·²": 4009,
      "HLæ¬¢": 4010,
      "ç²": 4011,
      "HLãģ®": 4012,
      "ç»Ł": 4013,
      "HLåľ°åĿĢ": 4014,
      "HLæľĿ": 4015,
      "HLunivers": 4016,
      "ä¹¦": 4017,
      "è¦ı": 4018,
      "HLcare": 4019,
      "HLmaint": 4020,
      "HLchild": 4021,
      "HLè²¸": 4022,
      "HLcrÃ©": 4023,
      "HLmarket": 4024,
      "ng": 4025,
      "HLÃ©l": 4026,
      "HLãĥĲãĥĥãĤ¯": 4027,
      "HLãģĻãģ¹": 4028,
      "HLæ²¡æľī": 4029,
      "HLthink": 4030,
      "è®º": 4031,
      "HLblog": 4032,
      "è¼ī": 4033,
      "aient": 4034,
      "ep": 4035,
      "HLlist": 4036,
      "HLæĽ´æĸ°": 4037,
      "HLpropos": 4038,
      "HLsem": 4039,
      "HLfemme": 4040,
      "action": 4041,
      "ç·Ĵ": 4042,
      "HLéĽ»è©±": 4043,
      "HLèĩ": 4044,
      "HLwind": 4045,
      "align": 4046,
      "HLlearn": 4047,
      "HLçĶ³": 4048,
      "ãģ¨ãģĨ": 4049,
      "HLãĤ¯ãĥ¬": 4050,
      "HLåĭŁ": 4051,
      "HLä¸Ģç¯ĩ": 4052,
      "aud": 4053,
      "HLsport": 4054,
      "over": 4055,
      "HLãģªãĤĵ": 4056,
      "ä»·": 4057,
      "HLteam": 4058,
      "top": 4059,
      "Ł¿": 4060,
      "HLä»ĺ": 4061,
      "HLsuiv": 4062,
      "HLãģ©ãģ®": 4063,
      "HLç¨®": 4064,
      "HLå»": 4065,
      "HLhist": 4066,
      "mage": 4067,
      "HLéĥ": 4068,
      "æĹĹ": 4069,
      "HLä¼ł": 4070,
      "HLçĶ»åĥı": 4071,
      "-:": 4072,
      "ty": 4073,
      "é©¬": 4074,
      "HLãģĤãĤĬãģĮ": 4075,
      "HLindustr": 4076,
      "HLrencontre": 4077,
      "nd": 4078,
      "ãĤ¤ãĥ¬": 4079,
      "è¯ģ": 4080,
      "HLå±ħ": 4081,
      "HLå¤ĩçĶ¨": 4082,
      "HLåİŁåĽł": 4083,
      "HLeng": 4084,
      "data": 4085,
      "sk": 4086,
      "ç¿Ĵ": 4087,
      "HLæĥ³": 4088,
      "HLçł´": 4089,
      "HLsort": 4090,
      "rait": 4091,
      "HLéĩĳèŀį": 4092,
      "ER": 4093,
      "HLfollow": 4094,
      "HLä»»": 4095,
      "åĬŁ": 4096,
      "æĽ¸": 4097,
      "å¨": 4098,
      "HLÃ©v": 4099,
      "éĺŁ": 4100,
      "ãĥ¯ãĤ¤ãĥĪ": 4101,
      "ãĥ¼ãĥ«ãĥī": 4102,
      "HLæ¨¡": 4103,
      "æį®": 4104,
      "HLåł±": 4105,
      "HLãĥŀãĥ³ãĤ·ãĥ§ãĥ³": 4106,
      "å´": 4107,
      "HLtable": 4108,
      "HLä¿¡æģ¯": 4109,
      "HLtoute": 4110,
      "âĨ": 4111,
      "âĺ": 4112,
      "HLãĥł": 4113,
      "HLbeing": 4114,
      "HLæī¿": 4115,
      "æ°ı": 4116,
      "HLãģĻãģ¹ãģ¦": 4117,
      "utes": 4118,
      "HLå¤ĸå£ģ": 4119,
      "HLãģ°": 4120,
      "HLæĤ": 4121,
      "å¼º": 4122,
      "HLçĲĨçĶ±": 4123,
      "HLmonde": 4124,
      "èħ": 4125,
      "HLãĤģ": 4126,
      "HLdont": 4127,
      "erie": 4128,
      "HLleurs": 4129,
      "HLhapp": 4130,
      "HLtrain": 4131,
      "HLãĤ¦ãĤ§": 4132,
      "HLãĥļãĥ¼ãĤ¸": 4133,
      "ipp": 4134,
      "HLthose": 4135,
      "åħĭ": 4136,
      "HLchange": 4137,
      "HLappro": 4138,
      "ãĤįãĤĵ": 4139,
      "HLãĤ°ãĥ©": 4140,
      "HLview": 4141,
      "åħ«": 4142,
      "åŃĺ": 4143,
      "HLèµ·": 4144,
      "HLperson": 4145,
      "HLproject": 4146,
      "ved": 4147,
      "HLä¸ĥ": 4148,
      "HLnature": 4149,
      "uses": 4150,
      "èĻİ": 4151,
      "HLçĴ°": 4152,
      "HLsitu": 4153,
      "HLè»Ĭ": 4154,
      "HLãģ²ãģ¨": 4155,
      "$(\"": 4156,
      "MA": 4157,
      "è¬": 4158,
      "HLãĤ¢ãĥ¡": 4159,
      "HLæ±Ĥ": 4160,
      "uite": 4161,
      "HLãģ¶": 4162,
      "è®°": 4163,
      "HLä»¥å¤ĸ": 4164,
      "HLdoes": 4165,
      "HLempl": 4166,
      "å²¡": 4167,
      "HLæĻ®éĢļ": 4168,
      "HLlitt": 4169,
      "alth": 4170,
      "HLå®Ŀ": 4171,
      "HLlead": 4172,
      "èµĽ": 4173,
      "HLé¢Ĩ": 4174,
      "HLæ¾³éĹ¨": 4175,
      "HLãģªãģĭ": 4176,
      "HLå®¹": 4177,
      "å¿Ĺ": 4178,
      "HLå¢ŀ": 4179,
      "HLãĥĩãĤ¶ãĤ¤ãĥ³": 4180,
      "HLåĨł": 4181,
      "eter": 4182,
      "ï¼ı": 4183,
      "HLãĤĤãģĹ": 4184,
      "HLperform": 4185,
      "å¯Ł": 4186,
      "lev": 4187,
      "HLåĪĨå¿«": 4188,
      "HLãĥķãĥŃ": 4189,
      "ric": 4190,
      "HLãģªãĤĵãģ": 4191,
      "HLåıĮ": 4192,
      "HLcompr": 4193,
      "HLãģ¨ãĤĤ": 4194,
      "HLãģŁãģıãģķãĤĵ": 4195,
      "omm": 4196,
      "HLãģ¾ãĤĮ": 4197,
      "HLãĤªãĥ³": 4198,
      "cul": 4199,
      "des": 4200,
      "tw": 4201,
      "ºå®ļ": 4202,
      "HLlight": 4203,
      "HLstand": 4204,
      "bles": 4205,
      "ettes": 4206,
      "HLæ´»åĭķ": 4207,
      "HLé£ŀèīĩ": 4208,
      "HLÃ©galement": 4209,
      "HLå¾Ī": 4210,
      "height": 4211,
      "HLçĬ¶æ³ģ": 4212,
      "HLãĤĤãģ¡ãĤįãĤĵ": 4213,
      "HLåºĶ": 4214,
      "HLéĹ®é¢ĺ": 4215,
      "uv": 4216,
      "HLoÃ¹": 4217,
      "HLven": 4218,
      "teurs": 4219,
      "HLeach": 4220,
      "HLè®¤": 4221,
      "HLæģĭ": 4222,
      "HLå½¼å¥³": 4223,
      "hip": 4224,
      "Ð½": 4225,
      "HLmess": 4226,
      "HLactiv": 4227,
      "bres": 4228,
      "HLweek": 4229,
      "HLãĥĪãĥĥãĥĹ": 4230,
      "ï¼ħ:": 4231,
      "HLton": 4232,
      "endant": 4233,
      "ãĥĭãĥĥãĤ¯": 4234,
      "HLdirect": 4235,
      "</": 4236,
      "land": 4237,
      "HLåħļ": 4238,
      "å¾¡": 4239,
      "HLåĽ½åĨħ": 4240,
      "å¯¼": 4241,
      "HLæŁ": 4242,
      "HLhy": 4243,
      "HLgratuit": 4244,
      "æĸ½": 4245,
      "HLãĤªãĥ¬": 4246,
      "HLäººæ°ĳ": 4247,
      "çŃĸ": 4248,
      "æķħ": 4249,
      "HLéģ©": 4250,
      "HLdifferent": 4251,
      "oupe": 4252,
      "anche": 4253,
      "HLå¥¥": 4254,
      "ãĤ·ãĥ£": 4255,
      "HLèħ¾": 4256,
      "==": 4257,
      "wh": 4258,
      "HLfunction": 4259,
      "ãĥģãĥ£": 4260,
      "HLè¯Ħ": 4261,
      "HLè£ľ": 4262,
      "HLopen": 4263,
      "69": 4264,
      "ren": 4265,
      "ateg": 4266,
      "HLä»£å¼ķ": 4267,
      "HLãĥģãĤ§ãĥĥãĤ¯": 4268,
      "âĢĿ:": 4269,
      "éªĮ": 4270,
      "conom": 4271,
      "ole": 4272,
      "HLä¸Ģäºº": 4273,
      "HLæ¥ŃåĭĻ": 4274,
      "HLæľŁéĸĵ": 4275,
      "ãĦ": 4276,
      "HLãģĹãģ£ãģĭãĤĬ": 4277,
      "HLåĩł": 4278,
      "HLãģĦãģŁãģĹ": 4279,
      "ç±³": 4280,
      "HLant": 4281,
      "HLconne": 4282,
      "blog": 4283,
      "2006": 4284,
      "HLimm": 4285,
      "HLãĤ¹ãĥĿãĥ¼ãĥĦ": 4286,
      "HLcop": 4287,
      "åľĴ": 4288,
      "HLåĬŀ": 4289,
      "ri": 4290,
      "ÑĢ": 4291,
      "HLãģĤãģ¾ãĤĬ": 4292,
      "ãĥĥãĤŃ": 4293,
      "110": 4294,
      "HLè«": 4295,
      "HLãĤ«ãĤ¦": 4296,
      "HLåĨľ": 4297,
      "æŃ¤": 4298,
      "78": 4299,
      "cd": 4300,
      "HLãģļ": 4301,
      "HLps": 4302,
      "HLcet": 4303,
      "åħ¸": 4304,
      "HLãģĿãģĵ": 4305,
      "HLè¿ĩ": 4306,
      "HLãĤ·ãĥªãĥ¼ãĤº": 4307,
      "ross": 4308,
      "HLmoins": 4309,
      "HLãĥ©ãĥ³ãĤŃãĥ³ãĤ°": 4310,
      "2008": 4311,
      "è«ĸ": 4312,
      "HLåŃĺåľ¨": 4313,
      "HLæľīéĻĲåħ¬åı¸": 4314,
      "yn": 4315,
      "HLmer": 4316,
      "ãĤ¦ãĤ¹": 4317,
      "HLsoit": 4318,
      "HLéĺ¿": 4319,
      "HLæ¯ı": 4320,
      "HLç»ıæµİ": 4321,
      "æīĭæľº": 4322,
      "HLchar": 4323,
      "æĢĿ": 4324,
      "HLåħĪçĶŁ": 4325,
      "HLfonction": 4326,
      "ually": 4327,
      "ï¼Ļ": 4328,
      "HLver": 4329,
      "çķ¥": 4330,
      "HLå¯Į": 4331,
      "è¾¾": 4332,
      "HLãĤŃãĥĥãĥģãĥ³": 4333,
      "HLpur": 4334,
      "HLoct": 4335,
      "HLå¼º": 4336,
      "HLcela": 4337,
      "600": 4338,
      "åįĪ": 4339,
      "HLæį": 4340,
      "ãĥ«ãĥĢ": 4341,
      "HLåħī": 4342,
      "HLimportant": 4343,
      "box": 4344,
      "HLdate": 4345,
      "tern": 4346,
      "HLdisc": 4347,
      "é¢ĳ": 4348,
      "èİ": 4349,
      "HLvoir": 4350,
      "HLrun": 4351,
      "antes": 4352,
      "HLå¤§äºº": 4353,
      "HLå¤§å°ı": 4354,
      "åĽ´": 4355,
      "åįĵ": 4356,
      "HLè²·åıĸ": 4357,
      "HLæłĩ": 4358,
      "HLæĭħ": 4359,
      "HLç±": 4360,
      "HLcuis": 4361,
      "atus": 4362,
      "ids": 4363,
      "HLjou": 4364,
      "HLæ¬¡": 4365,
      "ONG": 4366,
      "gg": 4367,
      "HLcult": 4368,
      "other": 4369,
      "HLunder": 4370,
      "aiss": 4371,
      "inst": 4372,
      "ä»½": 4373,
      "HLwebs": 4374,
      "çľĭ": 4375,
      "è¢": 4376,
      "HLæ§ĭ": 4377,
      "ï¼¡": 4378,
      "HLserr": 4379,
      "ãĥĬãĥ¼": 4380,
      "HLéĢŁåł±": 4381,
      "kg": 4382,
      "¹æŀľ": 4383,
      "HLpan": 4384,
      "HLè¬": 4385,
      "HLãĤĤãģ£ãģ¨": 4386,
      "HLæł¹": 4387,
      "èª¿": 4388,
      "HLè©ķ": 4389,
      "ç¡": 4390,
      "HLcomb": 4391,
      "HLçĲĨè§£": 4392,
      "HLdown": 4393,
      "HLmor": 4394,
      "HLconn": 4395,
      "HLå®¶åħ·": 4396,
      "\"}": 4397,
      "HLcamp": 4398,
      "HLred": 4399,
      "ãĤ¢ãĥ¼": 4400,
      "é¢¨": 4401,
      "94": 4402,
      "HLbal": 4403,
      "ada": 4404,
      "HLnext": 4405,
      "HLãĤ¢ãĤ¦ãĥĪ": 4406,
      "HLfut": 4407,
      "ãĥ¼ãĥĭãĥ³ãĤ°": 4408,
      "HLdiffÃ©r": 4409,
      "ON": 4410,
      "vis": 4411,
      "çı¾": 4412,
      "HLdim": 4413,
      "HLãģĹãĤĪ": 4414,
      "aison": 4415,
      "åłĤ": 4416,
      "HLèĭ¹æŀľ": 4417,
      "éĤ": 4418,
      "HLlim": 4419,
      "150": 4420,
      "HLsat": 4421,
      "HLmach": 4422,
      "HLå¸Ĥåľº": 4423,
      "\",:": 4424,
      "ino": 4425,
      "grid": 4426,
      "HLäººçĶŁ": 4427,
      "HLãĥĽãĥ¯ãĤ¤ãĥĪ": 4428,
      "HLassoci": 4429,
      "hor": 4430,
      "HLéŁĵ": 4431,
      "HLsuis": 4432,
      "è¯´": 4433,
      "HLterr": 4434,
      "APP": 4435,
      "jours": 4436,
      "HLnational": 4437,
      "HLæĺ¯": 4438,
      "HLåıĳæīĭæľº": 4439,
      "HLdocument": 4440,
      "HLãģĦãģ®": 4441,
      "æĪĺ": 4442,
      "HLautres": 4443,
      "HLå»ºè®¾": 4444,
      "HLèŃ¦": 4445,
      "HLçĴ°å¢ĥ": 4446,
      "aff": 4447,
      "ma": 4448,
      "HLcam": 4449,
      "oud": 4450,
      "HLbig": 4451,
      "HLãģĬãģĦ": 4452,
      "HLåĮĹæµ·": 4453,
      "HLæĽ¸": 4454,
      "HLè½¬": 4455,
      "è°·": 4456,
      "HLæĿ¡ä»¶": 4457,
      "HLfound": 4458,
      "HLund": 4459,
      "81": 4460,
      "HLpermet": 4461,
      "ume": 4462,
      "HLir": 4463,
      "HLæĴ": 4464,
      "HLreally": 4465,
      "HLéĬĢè¡Į": 4466,
      "HLåĭŁéĽĨ": 4467,
      "Ľĭ": 4468,
      "aces": 4469,
      "HLsecond": 4470,
      "HLèħ¾è®¯": 4471,
      "HLten": 4472,
      "åºŃ": 4473,
      "HLéģĵ": 4474,
      "HLçĽ®çļĦ": 4475,
      "ield": 4476,
      "cer": 4477,
      "HLãĤĬ": 4478,
      "HLãģĻãĤĮ": 4479,
      "åĢĻ": 4480,
      "éĵ": 4481,
      "HLæĵį": 4482,
      "HLåı¯æĦĽ": 4483,
      "velopp": 4484,
      "HLéĢ²": 4485,
      "HLäº¤æıĽ": 4486,
      "to": 4487,
      "ªåķı": 4488,
      "æľ«": 4489,
      "akes": 4490,
      "HLpossible": 4491,
      "(.": 4492,
      "½:": 4493,
      "HLocc": 4494,
      "HLexem": 4495,
      "HLå·¥äºĭ": 4496,
      "HLfeel": 4497,
      "none": 4498,
      "HLmas": 4499,
      "HLãĥĲãĥ©": 4500,
      "ostÃ©": 4501,
      "ellement": 4502,
      "HLcontre": 4503,
      "HLãĥĩãĥ¼ãĤ¿": 4504,
      "HLæ´Ĺ": 4505,
      "HLä¸Ĭæµ·": 4506,
      "ãĤ²": 4507,
      "æµĭ": 4508,
      "HLchauss": 4509,
      "ãģİ": 4510,
      "ãģ£ãģ¦": 4511,
      "æ±º": 4512,
      "åĢ¼": 4513,
      "ove": 4514,
      "ãģĦãĤį": 4515,
      "HLç´į": 4516,
      "æķĻ": 4517,
      "HLæ´¾": 4518,
      "HLç¨³èµ": 4519,
      "div": 4520,
      "rd": 4521,
      "HLãģĤãĤĮ": 4522,
      "HLä½Ļ": 4523,
      "HLcontact": 4524,
      "æı´": 4525,
      "HLjuin": 4526,
      "ãģŀ": 4527,
      "HLhouse": 4528,
      "èĤĸ": 4529,
      "HLaround": 4530,
      "è§ģ": 4531,
      "HLrep": 4532,
      "HLä¹Ŀ": 4533,
      "HLç¾İåĳ³": 4534,
      "HLç²¾ç¥ŀ": 4535,
      "azon": 4536,
      "HLcomplet": 4537,
      "HLãģĦãģĪ": 4538,
      "HLãģĤãģ¨": 4539,
      "fff": 4540,
      "HLãĤ¤ãĥĻ": 4541,
      "bo": 4542,
      "HLsun": 4543,
      "HLnoir": 4544,
      "colum": 4545,
      "HLåĮĹæµ·éģĵ": 4546,
      "sc": 4547,
      "HLaprÃ¨s": 4548,
      "HLèŀį": 4549,
      "itor": 4550,
      "HLèĩªåĭķ": 4551,
      "HLé£İ": 4552,
      "ness": 4553,
      "HLä¸Ģç·Ĵ": 4554,
      "HLcertain": 4555,
      "ãģ±ãģĦ": 4556,
      "HLéĶ": 4557,
      "ety": 4558,
      "ãĥ³ãĥĶ": 4559,
      "æ³¢": 4560,
      "HLçģ«": 4561,
      "HLquand": 4562,
      "çĽ¸": 4563,
      "éģ£": 4564,
      "HLtechnolog": 4565,
      "å´İ": 4566,
      "HLãĤªãĥ³ãĥ©ãĤ¤ãĥ³": 4567,
      "cf": 4568,
      "éŁ¿": 4569,
      "HLlarge": 4570,
      "HLvra": 4571,
      "HLãģªãģĬ": 4572,
      "ãĥªãĥ³ãĤ°": 4573,
      "250": 4574,
      "mber": 4575,
      "HLéĥ¨å±ĭ": 4576,
      "HLsomet": 4577,
      "HLãģĦãĤįãģĦãĤį": 4578,
      "HLN": 4579,
      "HLpap": 4580,
      "idÃ©": 4581,
      "agne": 4582,
      "æīį": 4583,
      "comment": 4584,
      "HLdÃ©t": 4585,
      "æĬ¤": 4586,
      "ane": 4587,
      "HLfact": 4588,
      "HLpriv": 4589,
      "HLè¿Ĳ": 4590,
      "HLå¥½è¿Ĳ": 4591,
      "HLå©ļ": 4592,
      "âĪ": 4593,
      "orth": 4594,
      "istance": 4595,
      "HLåģ½": 4596,
      "arget": 4597,
      "HLæĬĢè¡ĵ": 4598,
      "HLpower": 4599,
      "HLè½¦": 4600,
      "HLinternational": 4601,
      "HLcoll": 4602,
      "HLinvest": 4603,
      "éŃ": 4604,
      "HLèĻ": 4605,
      "ãĥ³ãĥĩ": 4606,
      "HLåĽ¾": 4607,
      "HLfri": 4608,
      "HLpetit": 4609,
      "HLquelques": 4610,
      "HLgam": 4611,
      "comp": 4612,
      "HLæĬĢæľ¯": 4613,
      "),": 4614,
      "AI": 4615,
      "oz": 4616,
      "HLåĶ": 4617,
      "HLä¸ģ": 4618,
      "HLrece": 4619,
      "HLmois": 4620,
      "ĥåŃĲ": 4621,
      "åħ±": 4622,
      "ãĥĥãĤ«ãĥ¼": 4623,
      "HLäººéĸĵ": 4624,
      "HLbuild": 4625,
      "HLæ»ļ": 4626,
      "HLãĤ¤ãĥĻãĥ³ãĥĪ": 4627,
      "Ã©ment": 4628,
      "HLéŁ³": 4629,
      "æºĸ": 4630,
      "HLchez": 4631,
      "HLgener": 4632,
      "HLãģĤãĤĬãģĮãģ¨ãģĨ": 4633,
      "HLL": 4634,
      "HLsince": 4635,
      "org": 4636,
      "ï¼İ": 4637,
      "HLmarch": 4638,
      "HLspÃ©c": 4639,
      "itch": 4640,
      "HLèµĮ": 4641,
      "HLentrepr": 4642,
      "HLpolit": 4643,
      "HLvill": 4644,
      "ienne": 4645,
      "HLãģ¿ãĤĭ": 4646,
      "ï¼Į:": 4647,
      "HLoffer": 4648,
      "HLãģĮãģ£": 4649,
      "HLexperience": 4650,
      "HLæľĢåĪĿ": 4651,
      "HLèŃ°": 4652,
      "HLç§ĳæĬĢ": 4653,
      "HLcm": 4654,
      "HLcir": 4655,
      "HLãģ¾ãĤĭ": 4656,
      "HLéľĢè¦ģ": 4657,
      "ES": 4658,
      "OU": 4659,
      "HLgroup": 4660,
      "HLåľ°æĸ¹": 4661,
      "ruct": 4662,
      "mble": 4663,
      "HLåı¯èĥ½æĢ§": 4664,
      "HLlittle": 4665,
      "HLbre": 4666,
      "HLanal": 4667,
      "ager": 4668,
      "HLãģĦãģĳãģĦ": 4669,
      "LI": 4670,
      "HLwater": 4671,
      "ä¹ĭ": 4672,
      "ï¼ĳï¼Ĳ": 4673,
      "HLmai": 4674,
      "HLãĤıãĤĮãĤĭ": 4675,
      "HLtoujours": 4676,
      "é»": 4677,
      "HLhim": 4678,
      "ãĢİ": 4679,
      "HLmoy": 4680,
      "HLå·¥ç¨ĭ": 4681,
      "eep": 4682,
      "120": 4683,
      "ss": 4684,
      "HLdiv": 4685,
      "HLsens": 4686,
      "ased": 4687,
      "ä¹ħ": 4688,
      "ideo": 4689,
      "HLäº¤éĢļ": 4690,
      "HLè¢«": 4691,
      "ãĤ¦ãĤ§": 4692,
      "ç»Ń": 4693,
      "oj": 4694,
      "HLdÃ©s": 4695,
      "ï½į": 4696,
      "HLå·Ŀ": 4697,
      "HLåİĨ": 4698,
      "æĭ¬": 4699,
      "HLè¨Ńå®ļ": 4700,
      "HLspecial": 4701,
      "71": 4702,
      "ger": 4703,
      "ãģŁãĤĬ": 4704,
      "HLæĸ°åĵģ": 4705,
      "oot": 4706,
      "çı": 4707,
      "ousel": 4708,
      "è´¨": 4709,
      "èģĶ": 4710,
      "HLåįģä¸Ģ": 4711,
      "HLpersonnes": 4712,
      "go": 4713,
      "ãĥ¡ãĥ¼ãĤ¸": 4714,
      "ç»ľ": 4715,
      "æĽľ": 4716,
      "HLç»ĵæŀľ": 4717,
      "carousel": 4718,
      "ways": 4719,
      "å±ħ": 4720,
      "HLæ²»çĻĤ": 4721,
      "HLfemmes": 4722,
      "HLquestion": 4723,
      "uel": 4724,
      "HLç½": 4725,
      "HLcost": 4726,
      "HLchang": 4727,
      "HLprÃ©c": 4728,
      "HLcentre": 4729,
      "æĿ¡": 4730,
      "HLPostÃ©": 4731,
      "HLcoule": 4732,
      "Ã»t": 4733,
      "Id": 4734,
      "hs": 4735,
      "ãĤ¾": 4736,
      "HLãģĦãģĮ": 4737,
      "HLprinc": 4738,
      "rain": 4739,
      "ules": 4740,
      "place": 4741,
      "ãĥ¯ãĥ¼": 4742,
      "HLé¤ĥåŃĲ": 4743,
      "ãĥ©ãĥ³": 4744,
      "ï¼Ĵï¼Ĳ": 4745,
      "HLduring": 4746,
      "HLva": 4747,
      "HLãĤ·ãĥ§ãĥĥãĥĹ": 4748,
      "HLå®£": 4749,
      "HLãĥ¬ãĥĵãĥ¥ãĥ¼": 4750,
      "HLæ¬§": 4751,
      "ever": 4752,
      "HLline": 4753,
      "HLsucc": 4754,
      "éĿ©": 4755,
      "HLãĤŃãĥ£ãĥ©": 4756,
      "HLæľŁå¾ħ": 4757,
      ")}": 4758,
      "æļ": 4759,
      "ãĥ¼ãĤ³": 4760,
      "HLä¼ĳ": 4761,
      "HLäºĭæ¥Ń": 4762,
      "HLãĤ°ãĥ«": 4763,
      "ottom": 4764,
      "HLçªģ": 4765,
      "HLæ¥": 4766,
      "HLãĥ¨": 4767,
      "HLboth": 4768,
      "åıĹ": 4769,
      "tres": 4770,
      "HLæĦĽ": 4771,
      "HLæĿ¥æºĲ": 4772,
      "pond": 4773,
      "HLreport": 4774,
      "HLè¿ŀ": 4775,
      "HLphoto": 4776,
      "HLnet": 4777,
      "HLjours": 4778,
      "HLåįĶ": 4779,
      "HLä»ĭèŃ·": 4780,
      "Åĵ": 4781,
      "ator": 4782,
      "ush": 4783,
      "HLå¼ł": 4784,
      "HLdÃ©m": 4785,
      "ized": 4786,
      "HLpuis": 4787,
      "HLpremier": 4788,
      "93": 4789,
      "Un": 4790,
      "isme": 4791,
      "åºķ": 4792,
      "å¯¹": 4793,
      "HLãģ¯ãģļ": 4794,
      "HLçŁŃ": 4795,
      "74": 4796,
      "æ·": 4797,
      "HLãģŃ": 4798,
      "HLfaut": 4799,
      "ãĤ¹ãĥ¡": 4800,
      "HLgrande": 4801,
      "HLprÃ©sent": 4802,
      "pte": 4803,
      "tes": 4804,
      "rez": 4805,
      "HLãģĭãģªãĤĬ": 4806,
      "ought": 4807,
      "HLprincip": 4808,
      "Image": 4809,
      "ya": 4810,
      "Ð°": 4811,
      "å¤ľ": 4812,
      "åºĶ": 4813,
      "HLresult": 4814,
      "çµĦ": 4815,
      "coup": 4816,
      "ãģŃ": 4817,
      "æĿŁ": 4818,
      "è¯Ĩ": 4819,
      "HLæĢĿ": 4820,
      "HLèªį": 4821,
      "496": 4822,
      "sm": 4823,
      "é¥": 4824,
      "HLul": 4825,
      "Ã©ro": 4826,
      "ãĥ¼ãĥ¡": 4827,
      "HLusing": 4828,
      "HLavail": 4829,
      "HLç¾İå®¹": 4830,
      "HLsystem": 4831,
      "HLãĤ¢ãĥ¡ãĥªãĤ«": 4832,
      "HLmain": 4833,
      "ãĢı": 4834,
      "HLstill": 4835,
      "HLå¾Ĺ": 4836,
      "HLtravail": 4837,
      "ãĥ¼ãĥĩãĤ£": 4838,
      "ãģ¼": 4839,
      "HLthings": 4840,
      "åĽŃ": 4841,
      "ãĥ¼ãĤ¶": 4842,
      "ples": 4843,
      "HLavoir": 4844,
      "ically": 4845,
      "æĭī": 4846,
      "èĩ³": 4847,
      "420": 4848,
      "itime": 4849,
      "HLmil": 4850,
      "HLbes": 4851,
      "HLãĥĸãĥ¬": 4852,
      "XI": 4853,
      "dd": 4854,
      "æĳ": 4855,
      "HLsil": 4856,
      "HLãģĹãģ®": 4857,
      "åºĨ": 4858,
      "HLiss": 4859,
      "HLãģĭãĤı": 4860,
      "la": 4861,
      "HLorig": 4862,
      "HLæİ¡": 4863,
      "HLrespons": 4864,
      "HLchaque": 4865,
      "HLopp": 4866,
      "important": 4867,
      "ama": 4868,
      "HLä¸Ģéĥ¨": 4869,
      "str": 4870,
      "HLexam": 4871,
      "HLãĥĪãĤ¤ãĥ¬": 4872,
      "HLè²¸æ¬¾": 4873,
      "HLç¨®é¡ŀ": 4874,
      "fc": 4875,
      "HLsout": 4876,
      "HLrecomm": 4877,
      "HLæ®ĭ": 4878,
      "eb": 4879,
      "HLV": 4880,
      "HLbou": 4881,
      "HLautom": 4882,
      "ween": 4883,
      "HLè¨Ģèĳī": 4884,
      "HLãģ¾ãĤĬ": 4885,
      "HLèĩªèº«": 4886,
      "HLåģļ": 4887,
      "HLè¶Ĭ": 4888,
      "HLé»ĳ": 4889,
      "HLschool": 4890,
      "HLdistr": 4891,
      "HLeu": 4892,
      "HLhealth": 4893,
      "HLæĪĲåĬŁ": 4894,
      "HLå®Įåħ¨": 4895,
      "HLå§Ķ": 4896,
      "HLæĺłçĶ»": 4897,
      "92": 4898,
      "HLanim": 4899,
      "HLetc": 4900,
      "HLãģ©ãĤĵãģª": 4901,
      "HLproduits": 4902,
      "HLfew": 4903,
      "ãĤ¶ãĥ¼": 4904,
      "HLchrist": 4905,
      "HLpouv": 4906,
      "HLÃ©tait": 4907,
      "çŃī": 4908,
      "sw": 4909,
      "ying": 4910,
      "HLpot": 4911,
      "åħļ": 4912,
      "ãģªãģĦ": 4913,
      "ï¿½ï¿½:": 4914,
      "ared": 4915,
      "oires": 4916,
      "HLãģ»ãģ¨": 4917,
      "HLinternet": 4918,
      "HLå®¶æĹı": 4919,
      "HLä»ĸä»¬": 4920,
      "HLå·²ç»ı": 4921,
      "ress": 4922,
      "HLcours": 4923,
      "illet": 4924,
      "ateurs": 4925,
      "HLæĿ¾": 4926,
      "df": 4927,
      "po": 4928,
      "¹çĽ®": 4929,
      "Ã¯": 4930,
      "ç¼": 4931,
      "HLlang": 4932,
      "ieurs": 4933,
      "HLåĮº": 4934,
      "ãĤ¸ãĥĥãĥĪ": 4935,
      "é£İ": 4936,
      "ç¯ī": 4937,
      "HLå®ĮæĪĲ": 4938,
      "HLèĲ½": 4939,
      "rier": 4940,
      "ªĴ": 4941,
      "ãĥ¼ãĤ°": 4942,
      "HLæĬĬ": 4943,
      "HLæĻĤä»£": 4944,
      "HLsera": 4945,
      "Review": 4946,
      "82": 4947,
      "HLcat": 4948,
      "ural": 4949,
      "ä¼Ĺ": 4950,
      "HLãĥĨãĥ¼ãĥĸãĥ«": 4951,
      "HLmode": 4952,
      "HLreturn": 4953,
      "HLãģ»ãģ¨ãĤĵãģ©": 4954,
      "HLçĤ": 4955,
      "HLoper": 4956,
      "HLæĺ¥": 4957,
      "HLéģ¸": 4958,
      "HLgoing": 4959,
      "HLèĭ±èªŀ": 4960,
      "HLæ¡Ī": 4961,
      "HLchambre": 4962,
      "ãĥ¼ãĥķ": 4963,
      "HLtrouver": 4964,
      "HLprofessionn": 4965,
      "HLãģĺãĤĥ": 4966,
      "HLmerci": 4967,
      "HLèĸ": 4968,
      "ification": 4969,
      "HLæĪĺ": 4970,
      "avor": 4971,
      "HLcheck": 4972,
      "ãĥĻãĥ«": 4973,
      "éħĴ": 4974,
      "HLé¦ĸé¡µ": 4975,
      "HLå½±éŁ¿": 4976,
      "HLH": 4977,
      "å®Ŀ": 4978,
      "ãĥ¡ãĥ©": 4979,
      "HLåºĹ": 4980,
      "HLè¾²": 4981,
      "ouvez": 4982,
      "HLsmall": 4983,
      "AR": 4984,
      "HLsel": 4985,
      "HLvit": 4986,
      "æŃĮ": 4987,
      "HLjourn": 4988,
      "HLæĸ½è¨Ń": 4989,
      "HLèĥĮ": 4990,
      "HLnouveau": 4991,
      "63": 4992,
      "ec": 4993,
      "utions": 4994,
      "ãĥĥãĥĳ": 4995,
      "HLreste": 4996,
      "ext": 4997,
      "HLdays": 4998,
      "HLfranÃ§ais": 4999,
      "HLä¸įåĭķ": 5000,
      "HLrÃ©alis": 5001,
      "HLå¯¼": 5002,
      "HLè¶³çĲĥ": 5003,
      "HLåģ½çī©": 5004,
      "ãĥ¨": 5005,
      "éĺ²": 5006,
      "é¤¨": 5007,
      "HLmoment": 5008,
      "HLcc": 5009,
      "ãĤ¯ãĥ©": 5010,
      "åĬŀ": 5011,
      "HLstate": 5012,
      "ç´ļ": 5013,
      "HLãģĻãģĶ": 5014,
      "ãĥįãĤ¹": 5015,
      "HLè°ĥ": 5016,
      "TI": 5017,
      "_:": 5018,
      "HLæħ": 5019,
      "HLrap": 5020,
      "Ã©ration": 5021,
      "å°¼": 5022,
      "HLconcern": 5023,
      "HLéĸ¢éĢ£": 5024,
      "my": 5025,
      "side": 5026,
      "¤į": 5027,
      "Â«": 5028,
      "HLåįİ": 5029,
      "HLable": 5030,
      "HLmaison": 5031,
      "HLè¿Ļä¸ª": 5032,
      "HLwebsite": 5033,
      "91": 5034,
      "HLleg": 5035,
      "ä½ı": 5036,
      "HLå·¦": 5037,
      "HLå¾¡": 5038,
      "HLãģįãģı": 5039,
      "èĬĤ": 5040,
      "posts": 5041,
      "off": 5042,
      "HLcode": 5043,
      "æĿĥ": 5044,
      "æ³ī": 5045,
      "HLåĮĸ": 5046,
      "HLãģĿãĤĮãģ§": 5047,
      "HLcome": 5048,
      "HLtrack": 5049,
      "HLåıĳå¸ĥ": 5050,
      "HLeduc": 5051,
      "HLãģĦãģ¤ãĤĤ": 5052,
      "HLä¿®çĲĨ": 5053,
      "ude": 5054,
      "æķ´": 5055,
      "HLbetween": 5056,
      "HLåĪ¶åº¦": 5057,
      "HLæĵįä½ľ": 5058,
      "ãģĲ": 5059,
      "HLtoday": 5060,
      "æĢ¥": 5061,
      "HLå±ŀ": 5062,
      "HLç¾İåĽ½": 5063,
      "HLè¦ĭç©į": 5064,
      "HLhp": 5065,
      "HLãĥĵãĤ¸": 5066,
      "HLäºĪç´Ħ": 5067,
      "HLlocation": 5068,
      "HLparticip": 5069,
      "çĹħ": 5070,
      "HLçĤ¹å¿ĥ": 5071,
      "HLfab": 5072,
      "room": 5073,
      "ãĥĭãĥ¼": 5074,
      "HLéļı": 5075,
      "HLè§Ĩé¢ĳ": 5076,
      "HLthree": 5077,
      "HLãĤ¹ãĥļ": 5078,
      "ired": 5079,
      "æŁ¥": 5080,
      "HLtv": 5081,
      "HLçĿ": 5082,
      "HLsame": 5083,
      "HLä»·": 5084,
      "HLname": 5085,
      "åħ´": 5086,
      "æĿ¾": 5087,
      "HLèĩªçĶ±": 5088,
      "HLçµĦ": 5089,
      "HLæīĢæľī": 5090,
      "HLãĤ¹ãĥŀãĥĽ": 5091,
      "HLcuisine": 5092,
      "HLavailable": 5093,
      "fect": 5094,
      "ãģľ": 5095,
      "åĨµ": 5096,
      "åĿĩ": 5097,
      "HLadv": 5098,
      "HLå¦Ĥæŀľ": 5099,
      "HLåĵģçīĮ": 5100,
      "Cl": 5101,
      "ara": 5102,
      "ãĤĮãĤĭ": 5103,
      "HLrev": 5104,
      "HLãģ¿ãĤĵãģª": 5105,
      "HLè®º": 5106,
      "HLoctob": 5107,
      "HLhav": 5108,
      "HLinterest": 5109,
      "HLä¾Ľ": 5110,
      "72": 5111,
      "HLcad": 5112,
      "HLãģĬãģĭ": 5113,
      "HLéº": 5114,
      "HLville": 5115,
      "ainer": 5116,
      "ãĤ¸ãĥ£": 5117,
      "HLpartie": 5118,
      "æ¯Ķ": 5119,
      "HLminutes": 5120,
      "SHI": 5121,
      "HLéŁĵåĽ½": 5122,
      "atest": 5123,
      "ica": 5124,
      "HLä½İ": 5125,
      "ãĥĥãĥķ": 5126,
      "HLsure": 5127,
      "thing": 5128,
      "HLãĤªãĥª": 5129,
      "èĪª": 5130,
      "list": 5131,
      "ãĤ¡": 5132,
      "icro": 5133,
      "ige": 5134,
      "æ¨¡": 5135,
      "HLnive": 5136,
      "ãĤ¹ãĤ¿ãĥ¼": 5137,
      "HLå¥ĳ": 5138,
      "è¯ķ": 5139,
      "HLæŃ¤": 5140,
      "HLè¦ģæ±Ĥ": 5141,
      "HLãĤ·ãĥ¥ãĥ¼ãĤº": 5142,
      "ii": 5143,
      "|:": 5144,
      "HLvente": 5145,
      "ots": 5146,
      "ulation": 5147,
      "ãģĹãģı": 5148,
      "HLorder": 5149,
      "HLãģĪãĤī": 5150,
      "HLbeaucoup": 5151,
      "HLrecherche": 5152,
      "ä¹ī": 5153,
      "çħ§": 5154,
      "HLå°ĳ": 5155,
      "HLç½ĳç»ľ": 5156,
      "ueil": 5157,
      "HLgroupe": 5158,
      "HLä¸īåĪĨ": 5159,
      "HLcolor": 5160,
      "ç¯Ģ": 5161,
      "\\/": 5162,
      "Ð¸": 5163,
      "HLæĳ": 5164,
      "HLelectr": 5165,
      "status": 5166,
      "åĭ¤": 5167,
      "HLèĢĮ": 5168,
      "HLãĤ¸ãĥ¥": 5169,
      "HLãĥķãĤ¡ãĥĥãĤ·ãĥ§ãĥ³": 5170,
      "Ã´tel": 5171,
      "HLç¾¤": 5172,
      "fÃ©r": 5173,
      "iture": 5174,
      "HLè¦ı": 5175,
      "HLenviron": 5176,
      "HLtoo": 5177,
      "HLãĤıãĤĭ": 5178,
      "HLä»¥åīį": 5179,
      "HLæ±½": 5180,
      "HLäºĪå®ļ": 5181,
      "HLstyle": 5182,
      "HLä¼Ĭ": 5183,
      "è¡Ģ": 5184,
      "HLåıĤèĢĥ": 5185,
      "title": 5186,
      "ream": 5187,
      "iting": 5188,
      "HLåĲī": 5189,
      "this": 5190,
      "å¾Ĵ": 5191,
      "HLç»Ħ": 5192,
      "ä¼ģ": 5193,
      "HLesp": 5194,
      "æ¹¾": 5195,
      "âĹı": 5196,
      "éĽ¨": 5197,
      "ails": 5198,
      "HLnouvelle": 5199,
      "ison": 5200,
      "ications": 5201,
      "ownl": 5202,
      "å°İ": 5203,
      "ReviewImage": 5204,
      "HLgive": 5205,
      "ney": 5206,
      "åĿĽ": 5207,
      "éĽĦ": 5208,
      "HLavis": 5209,
      "HLãĥĽãĥ¼ãĥł": 5210,
      "HLéĢļå¸¸": 5211,
      "HLæĶ¿åºľ": 5212,
      "ç¾©": 5213,
      "HLãĥĭãĥ¥ãĥ¼ãĤ¹": 5214,
      "HLstock": 5215,
      "å½¹": 5216,
      "HLkeep": 5217,
      "HLãģĦãģŁãģłãģĳ": 5218,
      "HLmust": 5219,
      "HLchem": 5220,
      "ãĤ¤ãĥĬ": 5221,
      "HLãĥ©ãĤ¤ãĥĪ": 5222,
      "HLåħ¨èº«": 5223,
      "ç¥¨": 5224,
      "HLge": 5225,
      "iale": 5226,
      "å£°": 5227,
      "HLautre": 5228,
      "type": 5229,
      "yr": 5230,
      "å¤Ħ": 5231,
      "HLãĤ³ãĥ¼ãĤ¹": 5232,
      "ownload": 5233,
      "ories": 5234,
      "HLãĤµãĥŃãĥ³": 5235,
      "HLèĭ¥": 5236,
      "æĮĩ": 5237,
      "HLlocal": 5238,
      "HLæĺ¨æĹ¥": 5239,
      "çª": 5240,
      "ãĥ´": 5241,
      "HLsett": 5242,
      "HLcall": 5243,
      "HLfun": 5244,
      "\":\":": 5245,
      "ãģ¡ãĤĥ": 5246,
      "HLå¾Ĵ": 5247,
      "HLä¾Ŀ": 5248,
      "éļľ": 5249,
      "HLprovide": 5250,
      "Ã©rieur": 5251,
      "HLhomme": 5252,
      "HLãĤ¯ãĥ¬ãĤ¸ãĥĥãĥĪ": 5253,
      "æ§ĭ": 5254,
      "rem": 5255,
      "ï¼³": 5256,
      "åľĭ": 5257,
      "HLarch": 5258,
      "éĢī": 5259,
      "opt": 5260,
      "HLmoi": 5261,
      "HLãģĿãģĨãģĦãģĨ": 5262,
      "HLå¹´åº¦": 5263,
      "HLçľŁçļĦ": 5264,
      "HLdemand": 5265,
      "HLå±ĭæł¹": 5266,
      "ape": 5267,
      "set": 5268,
      "HLmid": 5269,
      "åĪ«": 5270,
      "HLãĥĳãĤ½": 5271,
      "çµĤ": 5272,
      "HLãĤ·ãĥ£ãĥĦ": 5273,
      "issement": 5274,
      "HLç¥": 5275,
      "HLçĶ°": 5276,
      "è¦ĸ": 5277,
      "HLãģ¯ãģ¡": 5278,
      "HLcollect": 5279,
      "HLãĤ½ãĥķãĥĪ": 5280,
      "HLãģĭãĤıãģĦ": 5281,
      "HLåĬĽ": 5282,
      "joy": 5283,
      "HLç¯": 5284,
      "ï¼®": 5285,
      "HLear": 5286,
      "ãģŁãĤī": 5287,
      "HLæĿĲ": 5288,
      "HLjean": 5289,
      "ÃĹ:": 5290,
      "HLparticul": 5291,
      "HLè®°èĢħ": 5292,
      "ç¹": 5293,
      "HLä¸ĢåĪĨ": 5294,
      "ä½¿": 5295,
      "HLãģĭãģ¤": 5296,
      "$(\"#": 5297,
      "HLtÃ©lÃ©": 5298,
      "urg": 5299,
      "HLæ¶Īè²»": 5300,
      "HLæ¼Ķåĩº": 5301,
      "HLenfants": 5302,
      "Ñģ": 5303,
      "HLäºĴ": 5304,
      "HLå¤§åĪĩ": 5305,
      "ä¹ł": 5306,
      "istes": 5307,
      "HLãģĬãĤĪ": 5308,
      "HLwithout": 5309,
      "ogle": 5310,
      "ä¼¼": 5311,
      "HLè·¯": 5312,
      "HLtrop": 5313,
      "HLãĤ¹ãĤŃãĥ«": 5314,
      "HLjusqu": 5315,
      "æ½": 5316,
      "HLlun": 5317,
      "HLwom": 5318,
      "ãĥ¼ãĤ«": 5319,
      "HLãĤĪãģĦ": 5320,
      "çĽĬ": 5321,
      "HLplusieurs": 5322,
      "ension": 5323,
      "HLãĥļãĥĥãĥĪ": 5324,
      "HLæ´»åĬ¨": 5325,
      "âĸ½:": 5326,
      "ãĥ¼ãĥĢãĥ¼": 5327,
      "HLmainten": 5328,
      "HLexemple": 5329,
      "HLè¼": 5330,
      "reg": 5331,
      "HLvoy": 5332,
      "HLåĪĩ": 5333,
      "HLåĲİ": 5334,
      "HLè²ł": 5335,
      "æĭħ": 5336,
      "HLæĻº": 5337,
      "HLç¬¬äºĮ": 5338,
      "HLãĥ¦ãĥĭãĥķãĤ©ãĥ¼ãĥł": 5339,
      "ones": 5340,
      "HLnorm": 5341,
      "HLvend": 5342,
      "HLè»": 5343,
      "ä¸İ": 5344,
      "HLå¤ı": 5345,
      "HLbetter": 5346,
      "HLmusic": 5347,
      "HLnumber": 5348,
      "HLåİĨåı²": 5349,
      "uff": 5350,
      "HLä¸Ģåº¦": 5351,
      "HLãĤıãģĭãĤī": 5352,
      "HLãĤŃãĥ¼": 5353,
      "HLå¹³æĪĲ": 5354,
      "oney": 5355,
      "HLèĤ¡": 5356,
      "HLarticle": 5357,
      "ãĤ¼ãĥ³ãĥĪ": 5358,
      "HLsan": 5359,
      "HLfull": 5360,
      "ï¼Ł": 5361,
      "HLãĤ¤ãĥ³ãĤ¿": 5362,
      "æķĪ": 5363,
      "HLtext": 5364,
      "ä¼ĳ": 5365,
      "HLéĢļè¿ĩ": 5366,
      "':": 5367,
      "enc": 5368,
      "HLtit": 5369,
      "entes": 5370,
      "HLlevel": 5371,
      "HLwithin": 5372,
      "ãĤ§ãĥ«": 5373,
      "Ã©cur": 5374,
      "åģĩ": 5375,
      "HLaddition": 5376,
      "HLãĥĳãĤ½ãĤ³ãĥ³": 5377,
      "vier": 5378,
      "https": 5379,
      "ãĥŁãĤ¨": 5380,
      "HLclients": 5381,
      "å¯Ĩ": 5382,
      "HLè¡Ĺ": 5383,
      "HLãĥ«ãĤ¤ãĥ´ãĤ£ãĥĪ": 5384,
      "HLconstru": 5385,
      "HLè¨ĪçĶ»": 5386,
      "ram": 5387,
      "HLæ½": 5388,
      "HLcity": 5389,
      "HLhard": 5390,
      "åĩ»": 5391,
      "éļĽ": 5392,
      "HLinstall": 5393,
      "èĩ´": 5394,
      "HLsac": 5395,
      "ãĥ³ãĤ³": 5396,
      "HLãģ¯ãģĺãĤģ": 5397,
      "HLens": 5398,
      "HLéĢĢ": 5399,
      "æłĩ": 5400,
      "HLhead": 5401,
      "éĥİ": 5402,
      "self": 5403,
      "HLled": 5404,
      "ï¼´": 5405,
      "erst": 5406,
      "HLãģ¿ãģ®": 5407,
      "HLéĸĭå§ĭ": 5408,
      "HLtrois": 5409,
      "HLè©ķåĪ¤": 5410,
      "ville": 5411,
      "inal": 5412,
      "HLèı": 5413,
      "HLéĴ": 5414,
      "ãĥªãĥ¼ãĥ": 5415,
      "ãģ¾ãģį": 5416,
      "HLå¥ĳç´Ħ": 5417,
      "ler": 5418,
      "HLçħ§": 5419,
      "HLfix": 5420,
      "æĢģ": 5421,
      "éģ©": 5422,
      "HLæĸ°ä½ľ": 5423,
      "HLæĻĤæľŁ": 5424,
      "duct": 5425,
      "HLç§ĺ": 5426,
      "HLå¤©æ°Ķ": 5427,
      "ST": 5428,
      "HLsing": 5429,
      "åįĬ": 5430,
      "HLãĤ«ãĥĲãĥ¼": 5431,
      "HLjeu": 5432,
      "æ¥µ": 5433,
      "HLä¾¿åĪ©": 5434,
      "HLãģ¯ãģ¡ãģ¾ãģį": 5435,
      "jÃł": 5436,
      "atic": 5437,
      "HLãĤ¹ãĥĶ": 5438,
      "HLaud": 5439,
      "HLåħ¨ä½ĵ": 5440,
      "HLäºĭåĭĻ": 5441,
      "ãĥ¼ãĥĿ": 5442,
      "ãĤ¢ãĥĥãĥĹ": 5443,
      "HLalways": 5444,
      "ips": 5445,
      "HLrespect": 5446,
      "HLæĸĩç«ł": 5447,
      "HLbonne": 5448,
      "èĹ¤": 5449,
      "HLåĪ¤æĸŃ": 5450,
      "HLchaussures": 5451,
      "fort": 5452,
      "HLhab": 5453,
      "åŃ£": 5454,
      "HLæł¡": 5455,
      "HLè´¢": 5456,
      "HLè©¦": 5457,
      "å³°": 5458,
      "HLæĮĩå®ļ": 5459,
      "ç¦ı": 5460,
      "SR": 5461,
      "oration": 5462,
      "HLrad": 5463,
      "HLdÃ©velopp": 5464,
      "HLãģ»ãģĭ": 5465,
      "HLæĪĲåĪĨ": 5466,
      "HLä¸ĵä¸ļ": 5467,
      "å¦»": 5468,
      "HLé¾ĻèĻİ": 5469,
      "HLãģ£": 5470,
      "ination": 5471,
      "ols": 5472,
      "HLunique": 5473,
      "HLsepte": 5474,
      "Ã©ri": 5475,
      "ãĥĥãĤº": 5476,
      "HLarea": 5477,
      "dex": 5478,
      "HLçĽ´æİ¥": 5479,
      "HLçĥŃ": 5480,
      "ãĥ¼ãĥŃ": 5481,
      "ãģªãģĭ": 5482,
      "rer": 5483,
      "HLãĤħ": 5484,
      "HLãģĦãģ¾": 5485,
      "HLroad": 5486,
      "HLcourse": 5487,
      "HLæ¹ĸ": 5488,
      "ware": 5489,
      "ãĤ·ãĥ§": 5490,
      "ãĤ¤ãĤ¨": 5491,
      "ãĤ¯ãĥª": 5492,
      "img": 5493,
      "HLsuite": 5494,
      "HLãĤ«ãĥĥãĥĹ": 5495,
      "HLãģ¨ãĤĬ": 5496,
      "ãģ¯ãĤĬ": 5497,
      "HLé«ĺæł¡": 5498,
      "HLå¸Ĥåł´": 5499,
      "HLsyst": 5500,
      "HLroom": 5501,
      "HLplease": 5502,
      "800": 5503,
      "HLcit": 5504,
      "äºī": 5505,
      "éģİ": 5506,
      "å¥Ī": 5507,
      "ï¾ŀ": 5508,
      "container": 5509,
      "HLç«ŀ": 5510,
      "HLåī¯": 5511,
      "HLåıĸå¾Ĺ": 5512,
      "HLæĶ¿æ²»": 5513,
      "åĶ®": 5514,
      "RE": 5515,
      "çĨ": 5516,
      "çĩ": 5517,
      "ãĤĢ": 5518,
      "ura": 5519,
      "HLclub": 5520,
      "å©¦": 5521,
      "navigation": 5522,
      "eau": 5523,
      "sol": 5524,
      "HLÃ©quip": 5525,
      "HLãĤĦãģ¯ãĤĬ": 5526,
      "HLçµĤ": 5527,
      "Ã¢t": 5528,
      "HLæĶ¯æı´": 5529,
      "HLstudents": 5530,
      "ley": 5531,
      "HLæĿĳ": 5532,
      "ï¾Ł": 5533,
      "HLæĬķè³ĩ": 5534,
      "HLå®¶åºŃ": 5535,
      "HLãĤ¹ãĤ¿ãĥĥãĥķ": 5536,
      "HLtwitter": 5537,
      "HLéĩİèıľ": 5538,
      "HLincre": 5539,
      "HLqualitÃ©": 5540,
      "button": 5541,
      "HLincluding": 5542,
      "ij": 5543,
      "ister": 5544,
      "HLä¸¾": 5545,
      "åĪ»": 5546,
      "éĻ©": 5547,
      "HLimpro": 5548,
      "earch": 5549,
      "ength": 5550,
      "HLåľŁåľ°": 5551,
      "erve": 5552,
      "orn": 5553,
      "HLçº¢": 5554,
      "HLrestaur": 5555,
      "ception": 5556,
      "HLæ´¾éģ£": 5557,
      "HLå¾ĴæŃ©": 5558,
      "HLlab": 5559,
      "ãĥ¼ãĤ·": 5560,
      "new": 5561,
      "HLãĥŀãĥ¼ãĤ¯": 5562,
      "HLåĭī": 5563,
      "HLåĲĪä½ľ": 5564,
      "HLconditions": 5565,
      "ãĥ¼ãĤ¶ãĥ¼": 5566,
      "ious": 5567,
      "HLporte": 5568,
      "HLinn": 5569,
      "åĮħ": 5570,
      "HLçīĪ": 5571,
      "HLãģ¤ãģį": 5572,
      "HLãģ¾ãģŁãģ¯": 5573,
      "HLminist": 5574,
      "ished": 5575,
      "ãĥ³ãĥĹãĥ«": 5576,
      "HLé¡¹çĽ®": 5577,
      "ward": 5578,
      "zy": 5579,
      "Ñı": 5580,
      "HLmise": 5581,
      "HLold": 5582,
      "å®¿": 5583,
      "HLep": 5584,
      "HLãĤ¢ãĥĬ": 5585,
      "ç§°": 5586,
      "HLmaj": 5587,
      "ãĥĥãĥĶãĥ³ãĤ°": 5588,
      "cel": 5589,
      "HLput": 5590,
      "HLåĪ©ç": 5591,
      "HLåĭĿ": 5592,
      "ÐµÐ": 5593,
      "HLcurrent": 5594,
      "HLç±³": 5595,
      "EI": 5596,
      "HLsay": 5597,
      "ãĤīãģĦ": 5598,
      "éĢĶ": 5599,
      "ç»Ħ": 5600,
      "åĢŁ": 5601,
      "HLèĪĪ": 5602,
      "çĭĤ": 5603,
      "62": 5604,
      "gu": 5605,
      "vous": 5606,
      "HLaj": 5607,
      "HLpack": 5608,
      "omb": 5609,
      "HLãģªãģľ": 5610,
      "HLãģĤãģ®": 5611,
      "HLãĤıãģĭãĤĬ": 5612,
      "HLå¹³åĿĩ": 5613,
      "HLimp": 5614,
      "HLãģĵãĤĮãģĭãĤī": 5615,
      "HLåŁ¹": 5616,
      "HLnove": 5617,
      "HLãĥŁãĥĭ": 5618,
      "åģ´": 5619,
      "æ¨Ļ": 5620,
      "rice": 5621,
      "èĨ": 5622,
      "ãĥ¼ãĥį": 5623,
      "icon": 5624,
      "HLä»²": 5625,
      "HLdoit": 5626,
      "HLloi": 5627,
      "HLçļ®": 5628,
      "HLéĥ½": 5629,
      "åįĩ": 5630,
      "HLåĮ»çĻĤ": 5631,
      "æĺ¥": 5632,
      "å¹ħ": 5633,
      "HLdÃ©f": 5634,
      "HLæĶ»": 5635,
      "æ²¹": 5636,
      "HLãĤ±ãĤ¢": 5637,
      "HLfinanc": 5638,
      "HLãĥĹãĥ¬ãĤ¼ãĥ³ãĥĪ": 5639,
      "HLæ¢ħ": 5640,
      "HLpier": 5641,
      "HLgame": 5642,
      "HLpract": 5643,
      "HLdÃ©jÃł": 5644,
      "HLãĥŃãĥ¼ãĥ³": 5645,
      "HLæĹħæ¸¸": 5646,
      "HLvir": 5647,
      "Ã¨ne": 5648,
      "åĭ¢": 5649,
      "HLãĤ¨ãĥĥãĥģ": 5650,
      "ãĥ³ãĥĨãĤ£": 5651,
      "ãĤĨ": 5652,
      "HLä»İ": 5653,
      "HLãģŁãģ£": 5654,
      "HLãĤ¨ãĤ¢": 5655,
      "ords": 5656,
      "HLå¨ģ": 5657,
      "HLdiffic": 5658,
      "HLæºĸ": 5659,
      "HLcountr": 5660,
      "enn": 5661,
      "HLãģĲ": 5662,
      "irl": 5663,
      "04496": 5664,
      "HLåĬłå·¥": 5665,
      "0449610": 5666,
      "ãĥŃãĥ¼": 5667,
      "HLåħ¨å¤©": 5668,
      "HLèĤ²": 5669,
      "HLåīµ": 5670,
      "HLèĪª": 5671,
      "HLçİ©æ³ķ": 5672,
      "Le": 5673,
      "urance": 5674,
      "HLbeaut": 5675,
      "HLãģĬãģĹãĤĥ": 5676,
      "HLåĨĨ": 5677,
      "éĸĢ": 5678,
      "HLident": 5679,
      "HLäº§åĵģ": 5680,
      "cb": 5681,
      "pan": 5682,
      "HLpark": 5683,
      "HLãģĭãĤĬ": 5684,
      "HLãĥģãĥ§": 5685,
      "HLãĥĢãĤ¤ãĥ": 5686,
      "HLçĶµåŃĲ": 5687,
      "ç±»": 5688,
      "ç¾¤": 5689,
      "HLmobile": 5690,
      "HLanother": 5691,
      "æ±ł": 5692,
      "HLæĶ¹åĸĦ": 5693,
      "HLmis": 5694,
      "HLfond": 5695,
      "äºĳ": 5696,
      "HLnever": 5697,
      "èĤī": 5698,
      "HLæŀľ": 5699,
      "HLpeuvent": 5700,
      "HLãģĬãĤĪãģ³": 5701,
      "ĆĈą": 5702,
      "inner": 5703,
      "ided": 5704,
      "HLforum": 5705,
      "ists": 5706,
      "æ´ĭ": 5707,
      "ube": 5708,
      "æ¼ı": 5709,
      "navitime": 5710,
      "HLåŁİå¸Ĥ": 5711,
      "HLåĭīå¼·": 5712,
      "61": 5713,
      "ke": 5714,
      "HLãĤ¹ãĥĳ": 5715,
      "HLãģĬãģ£": 5716,
      "HLç½ĳä¸Ĭ": 5717,
      "HLãĤ·ãĥ«": 5718,
      "âĨĴ": 5719,
      "HLãĤ«ãĤ¦ãĥ³ãĤ»": 5720,
      "73": 5721,
      "ival": 5722,
      "HLãģĭãģĭãĤĭ": 5723,
      "HLafin": 5724,
      "HLlooking": 5725,
      "hy": 5726,
      "HLlow": 5727,
      "ourg": 5728,
      "âĢĺ": 5729,
      "HLenjoy": 5730,
      "HLåħ¨çĲĥ": 5731,
      "HLãģ¤ãģ®": 5732,
      "HLbrand": 5733,
      "ron": 5734,
      "èĸ": 5735,
      "HLbase": 5736,
      "HLä¸Ģæĸ¹": 5737,
      "HLfre": 5738,
      "HLå·´": 5739,
      "pri": 5740,
      "ãģĳãĤĮ": 5741,
      "HLè¦ª": 5742,
      "HLversion": 5743,
      "HLéªĹ": 5744,
      "The": 5745,
      "cal": 5746,
      "face": 5747,
      "table": 5748,
      "HLfig": 5749,
      "HLãģĦãĤĦ": 5750,
      "ä½İ": 5751,
      "pec": 5752,
      "HLãģ¯ãģĬ": 5753,
      "HLãĥīãĥ¬ãĤ¹": 5754,
      "HLä¸įèĥ½": 5755,
      "HLãĤ»ãĥ³ãĤ¿ãĥ¼": 5756,
      "Ã´le": 5757,
      "èį£": 5758,
      "HLéŃħ": 5759,
      "HLéĽ¢": 5760,
      "HLãĥķãĥ«": 5761,
      "ãĥĹãĥ¬": 5762,
      "HLçķĻ": 5763,
      "HLtotal": 5764,
      "HLpm": 5765,
      "ï¼©": 5766,
      "æĽ²": 5767,
      "HLhowever": 5768,
      "ãģĿãģı": 5769,
      "HLçĸ¯": 5770,
      "çĤº": 5771,
      "HLèĸ¬": 5772,
      "ifi": 5773,
      "ç¨İ": 5774,
      "éłŃ": 5775,
      "HLphotos": 5776,
      "HLfamily": 5777,
      "HLå¤©çĦ¶": 5778,
      "HLemploy": 5779,
      "900": 5780,
      "HLici": 5781,
      "HLdownload": 5782,
      "HLbox": 5783,
      "user": 5784,
      "HLdess": 5785,
      "HLonce": 5786,
      "HLhaut": 5787,
      "HLå¿«ä¸ī": 5788,
      "jpg": 5789,
      "HLãĤ¿ãĤ¤ãĥ¤": 5790,
      "HLjuillet": 5791,
      "hin": 5792,
      "ze": 5793,
      "HLsavoir": 5794,
      "é©": 5795,
      "HLE": 5796,
      "ional": 5797,
      "HLåıĺ": 5798,
      "HLåħ¨éĥ¨": 5799,
      "çµ±": 5800,
      "HLexpert": 5801,
      "HLniveau": 5802,
      "Pro": 5803,
      "vo": 5804,
      "çĬ": 5805,
      "HLhau": 5806,
      "HLÃ©cr": 5807,
      "HLåĬ¨": 5808,
      "HLãĥ©ãĤ¤ãĥ³": 5809,
      "HLãģĨãģ®": 5810,
      "HLèĮ¶": 5811,
      "HLeasy": 5812,
      "iser": 5813,
      "HLãģĦãĤĤ": 5814,
      "HLaug": 5815,
      "è´£": 5816,
      "ãĤªãĥ³": 5817,
      "HLçĹħéĻ¢": 5818,
      "ãģ²": 5819,
      "HLgrow": 5820,
      "HLäºĳ": 5821,
      "HLãģĤãģĴ": 5822,
      "HLappar": 5823,
      "HLãĤ«ãĥķãĤ§": 5824,
      "ãĥĭãĤ¢": 5825,
      "HLæľ¬ä½ĵ": 5826,
      "ï¿½ï¿½ï¿½": 5827,
      "head": 5828,
      "HLä¸ĩåįļ": 5829,
      "HLçļĩ": 5830,
      "],": 5831,
      "bottom": 5832,
      "HLturn": 5833,
      "HLcase": 5834,
      "ãĤ¿ãĥ«": 5835,
      "HLãĤ«ãĥ¡ãĥ©": 5836,
      "HLäººå·¥": 5837,
      "HLãĤ¨ãĥŃ": 5838,
      "HLmeet": 5839,
      "èģ·": 5840,
      "HLéĿ¢çĻ½": 5841,
      "HLæļ´": 5842,
      "HLwindows": 5843,
      "HLbeso": 5844,
      "HLçĸ¯çĭĤ": 5845,
      "uer": 5846,
      "HLãĤ¼": 5847,
      "HLå¤§åħ¨": 5848,
      "HLjob": 5849,
      "HLwhite": 5850,
      "ãĤ¿ãĥ³": 5851,
      "HLãĤ¤ãĥ¡ãĥ¼ãĤ¸": 5852,
      "HLFr": 5853,
      "HLsomething": 5854,
      "jo": 5855,
      "target": 5856,
      "enne": 5857,
      "HLãģľ": 5858,
      "HLpartir": 5859,
      "HLresearch": 5860,
      "è¾¹": 5861,
      "HLè©±": 5862,
      "çģ«": 5863,
      "HLãĥĪãĥ¬ãĥ¼ãĥĭãĥ³ãĤ°": 5864,
      "çĦ": 5865,
      "ï¼¤": 5866,
      "ung": 5867,
      "HLå¤į": 5868,
      "ãģĭãģı": 5869,
      "èĤ¡": 5870,
      "HLçĽ¸åħ³": 5871,
      "HLäºĶåĪĨ": 5872,
      "alisation": 5873,
      "HLãĤ®ãĥķãĥĪ": 5874,
      "HLculture": 5875,
      "bers": 5876,
      "name": 5877,
      "ï¼¥": 5878,
      "HLgot": 5879,
      "HLãģªãĤĵãģ¨": 5880,
      "ãĤ¤ãĥĲ": 5881,
      "trans": 5882,
      "HLblanc": 5883,
      "é¦¬": 5884,
      "HLposted": 5885,
      "æ¢°": 5886,
      "CE": 5887,
      "æĲ": 5888,
      "HLJ": 5889,
      "HLsent": 5890,
      "HLban": 5891,
      "pression": 5892,
      "HLcontrol": 5893,
      "HLæĬķèµĦ": 5894,
      "HLä¸»è¦ģ": 5895,
      "HLãģĳãĤī": 5896,
      "HLçĪ±": 5897,
      "HLçĪĨ": 5898,
      "Ð¾Ð": 5899,
      "HLæİ¡çĶ¨": 5900,
      "HLéŃħåĬĽ": 5901,
      "HLä¸´": 5902,
      "HLæ³°": 5903,
      "HLæ´¥": 5904,
      "HLçĻ»åł´": 5905,
      "HLupd": 5906,
      "HLproducts": 5907,
      "HLãĥĸãĥ«ãĥ¼": 5908,
      ")(": 5909,
      "aa": 5910,
      "hui": 5911,
      "ano": 5912,
      "HLfur": 5913,
      "HLãģ§ãģĻ": 5914,
      "HLproble": 5915,
      "HLå®īåįĵ": 5916,
      "HLæĪĲä¸º": 5917,
      "...:": 5918,
      "HLsolid": 5919,
      "HLsalle": 5920,
      "HLdemande": 5921,
      "fault": 5922,
      "HLè¬Ľ": 5923,
      "uck": 5924,
      "®®": 5925,
      "HLsÃ©cur": 5926,
      "HLfich": 5927,
      "HLreview": 5928,
      "ãĥªãĤ¹": 5929,
      "åľŁ": 5930,
      "HLwhy": 5931,
      "HLç»Ł": 5932,
      "HLåľ°åĮº": 5933,
      "HLæĸ¹å¼ı": 5934,
      "HLçİ°åľ¨": 5935,
      "HLpropert": 5936,
      "HLãģĬãģĹãĤĥãĤĮ": 5937,
      "éĮ": 5938,
      "icles": 5939,
      "åħµ": 5940,
      "ãĤ¤ãĥĸ": 5941,
      "1513": 5942,
      "ãĥ¼ãĤ¹ãĥĪ": 5943,
      "HLavez": 5944,
      "HLworking": 5945,
      "ãĥ¼ãĥĲãĥ¼": 5946,
      "HLè®ºåĿĽ": 5947,
      "HLlieu": 5948,
      "HLgra": 5949,
      "HLçīĩ": 5950,
      "HLcollection": 5951,
      "HLãĤ¸ãĥ§": 5952,
      "ministr": 5953,
      "aÃ®": 5954,
      "ently": 5955,
      "HLãģĬãģı": 5956,
      "ãĥĥãĤ·": 5957,
      "HLshare": 5958,
      "HLãģķãģ¾": 5959,
      "æ¹ĸ": 5960,
      "HLjanvier": 5961,
      "HLåĨłåĨĽ": 5962,
      "HLagr": 5963,
      "HLcu": 5964,
      "itation": 5965,
      "ï¼£": 5966,
      "HLä½Ĳ": 5967,
      "aines": 5968,
      "HLãĤªãĤ¹": 5969,
      "æ¸ħ": 5970,
      "autres": 5971,
      "HLãĥĦãĤ¢ãĥ¼": 5972,
      "HLelse": 5973,
      "HLè§Ħå¾ĭ": 5974,
      "éºĹ": 5975,
      "US": 5976,
      "entre": 5977,
      "asion": 5978,
      "å¸¦": 5979,
      "HLãĤµãĥĥãĤ«ãĥ¼": 5980,
      "HLãģĨãģ¨": 5981,
      "HLåĢĭ": 5982,
      "HLç¡®": 5983,
      "pir": 5984,
      "ately": 5985,
      "çīĽ": 5986,
      "HLdÃ©p": 5987,
      "HLè¨º": 5988,
      "HLçľ¼": 5989,
      "HLãĥĻãĥĥãĥī": 5990,
      "HLdevelopment": 5991,
      "HLåĺ": 5992,
      "ï¼Ń": 5993,
      "HLå¤§å®¶": 5994,
      "HLchamp": 5995,
      "å¤±": 5996,
      "HLpast": 5997,
      "HLãĤ¤ãĥ³ãĥĨ": 5998,
      "HLå¤ĸåĽ´": 5999,
      "çŃĶ": 6000,
      "HLæ¨Ļ": 6001,
      "HLpoints": 6002,
      "éĻį": 6003,
      "è¯»": 6004,
      "è®Ń": 6005,
      "HLcompte": 6006,
      "HLmanagement": 6007,
      "HLæŃ£è§Ħ": 6008,
      "HLCh": 6009,
      "HLcenter": 6010,
      "HLRÃ©": 6011,
      "èĦĳ": 6012,
      "HLchildren": 6013,
      "âĪĴ": 6014,
      "HLæŁ¥": 6015,
      "HLèĸĦ": 6016,
      "atures": 6017,
      "HLbat": 6018,
      "HLfood": 6019,
      "HLéĢł": 6020,
      "ially": 6021,
      "HLå¸¦": 6022,
      "HLindivid": 6023,
      "HLformation": 6024,
      "HLãģ¾ãģļãģ¯": 6025,
      "ç¢": 6026,
      "HLpal": 6027,
      "HLsau": 6028,
      "HLå¤Ħ": 6029,
      "HLavr": 6030,
      "HLè§Ĥ": 6031,
      "éľĩ": 6032,
      "HLdispon": 6033,
      "HLåģľ": 6034,
      "HLproduit": 6035,
      "HLãģªãģıãģª": 6036,
      "ãģĸãģĦ": 6037,
      "HLæ¬¢ä¹Ĳ": 6038,
      "HLãģªãģĭãģªãģĭ": 6039,
      "ç¹Ķ": 6040,
      "\">": 6041,
      "aill": 6042,
      "code": 6043,
      "ç¸": 6044,
      "HLdest": 6045,
      "HLlive": 6046,
      "HLnight": 6047,
      "å¹²": 6048,
      "HLoffice": 6049,
      "HLæĻ¯": 6050,
      "HLéĢ£çµ": 6051,
      "oor": 6052,
      "ãģ£ãģıãĤĬ": 6053,
      "å¯Į": 6054,
      "HLè¿ĻäºĽ": 6055,
      "HLDÃ©": 6056,
      "HLæķ´çĲĨ": 6057,
      "HLçł´è§£": 6058,
      "æ¿": 6059,
      "HLçĮ": 6060,
      "HLå®®": 6061,
      "HLçĽĳ": 6062,
      "HLçĶŁèĤĸ": 6063,
      "HLéĻ¤": 6064,
      "HLnote": 6065,
      "HLè¡Įä¸ļ": 6066,
      "ãĥªãĥĨãĤ£": 6067,
      "HLavait": 6068,
      "HLãĤ¦ãĤ©": 6069,
      "HLèī²": 6070,
      "HLå»¶": 6071,
      "DA": 6072,
      "mi": 6073,
      "HLdit": 6074,
      "ï¼²": 6075,
      "HLviv": 6076,
      "HLãģĦãģ«": 6077,
      "ifier": 6078,
      "HLãģĭãģ«": 6079,
      "HLãĥŁãĥ¥": 6080,
      "èį·": 6081,
      "HLãģĶãģĸãģĦ": 6082,
      "HLæĲŃ": 6083,
      "HLåį³æĹ¥": 6084,
      "HLæĭħå½ĵ": 6085,
      "HLselon": 6086,
      "HLèĹ": 6087,
      "HLrou": 6088,
      "HLrom": 6089,
      "cembre": 6090,
      "èĢĮ": 6091,
      "HLãĤĦãģ£ãģ±": 6092,
      "HLãģ«ãģı": 6093,
      "ãģŀãĤĮ": 6094,
      "less": 6095,
      "mas": 6096,
      "ãģģ": 6097,
      "HLble": 6098,
      "ãĥĪãĥª": 6099,
      "ãĥĥãĤ»": 6100,
      "HLãģĿãĤĮãģŀãĤĮ": 6101,
      "HLä½ľèĢħ": 6102,
      "HLä¼ļåĵ¡": 6103,
      "HLdivers": 6104,
      "HLlÃ©g": 6105,
      "ãĥ³ãĥļ": 6106,
      "HLä¸ĢäºĽ": 6107,
      "ocus": 6108,
      "ify": 6109,
      "HLå°Ĩ": 6110,
      "HLjam": 6111,
      "HLclean": 6112,
      "HLæ±½è½¦": 6113,
      "ibles": 6114,
      "HLpouvez": 6115,
      "HLåįı": 6116,
      "HLsumm": 6117,
      "HLç½ĳé¡µ": 6118,
      "éĽ£": 6119,
      "HLãģ¿ãģª": 6120,
      "HLãĤ·ãĥ£ãĥįãĥ«": 6121,
      "HLè©±é¡Į": 6122,
      "na": 6123,
      "å®Ī": 6124,
      "ãĥ¼ãĤ±": 6125,
      "HLåĪ¥": 6126,
      "HLãģĿãĤĮãģ«": 6127,
      "HLç¨İ": 6128,
      "HLçķ°": 6129,
      "HLæľªæĿ¥": 6130,
      "HLãģĮãĤĭ": 6131,
      "ãĥ«ãĥķ": 6132,
      "HLãģ¨ãģ£": 6133,
      "æŀĦ": 6134,
      "HLå·¥åħ·": 6135,
      "æĬķ": 6136,
      "HLobject": 6137,
      "ENG": 6138,
      "var": 6139,
      "Ĩãĥł": 6140,
      "HLtyp": 6141,
      "HLnat": 6142,
      "amment": 6143,
      "HLçĽ£": 6144,
      "HLæİ§": 6145,
      "ä¾¿": 6146,
      "HLãģ»ãģĹ": 6147,
      "HLé¡§": 6148,
      "HLhref": 6149,
      "ump": 6150,
      "HLãĥĳãĥ³": 6151,
      "HLå½ĵçĦ¶": 6152,
      "HLoptions": 6153,
      "HLãĥĵãĤ¸ãĥįãĤ¹": 6154,
      "HLfar": 6155,
      "ãĥ¼ãĥľ": 6156,
      "ãĤ¤ãĥĥãĥģ": 6157,
      "HLgiv": 6158,
      "\":{\"": 6159,
      "HLå°ıåŃ¦": 6160,
      "phone": 6161,
      "è²¸": 6162,
      "HLeurope": 6163,
      "ãĥ¼ãĥ¡ãĥ³": 6164,
      "HLå±ŀæĢ§": 6165,
      "ãĥ¼ãĥ¼": 6166,
      "HLå®ģ": 6167,
      "HLå½¹": 6168,
      "rap": 6169,
      "aise": 6170,
      "HLãĥŀãĥ«": 6171,
      "HLãģ¤ãģı": 6172,
      "HLæĸ¹éĿ¢": 6173,
      "HLãĥĨãĤ£": 6174,
      "HLèª²": 6175,
      "æ£®": 6176,
      "HLéĵ¶": 6177,
      "iance": 6178,
      "HLsouv": 6179,
      "HLãģĿãģĵãģ": 6180,
      "HLprobl": 6181,
      "HLå¾·": 6182,
      "HLameric": 6183,
      "HLç§ĳåŃ¦": 6184,
      "HLæºĸåĤĻ": 6185,
      "LE": 6186,
      "met": 6187,
      "son": 6188,
      "way": 6189,
      "HLåĪĺ": 6190,
      "å·®": 6191,
      "åĢĭ": 6192,
      "HLæĸĩåŃĹ": 6193,
      "HLèģĮ": 6194,
      "){:": 6195,
      "HLfilm": 6196,
      "HLçŁ¥éģĵ": 6197,
      "HLquality": 6198,
      "HLquestions": 6199,
      "jourd": 6200,
      "UI": 6201,
      "HLdig": 6202,
      "ãĤ¯ãĥŃ": 6203,
      "å±Ĥ": 6204,
      "HLask": 6205,
      "HLregard": 6206,
      "ãĤ·ãĥ¥": 6207,
      "HLèµĦæĸĻ": 6208,
      "HLèĥ½åĬĽ": 6209,
      "HLgÃ©nÃ©r": 6210,
      "HLtaille": 6211,
      "HLcot": 6212,
      "HLèĴ": 6213,
      "HLress": 6214,
      "HLord": 6215,
      "HLäºĮåĪĨ": 6216,
      "èı¯": 6217,
      "ãĥ³ãĥĲãĥ¼": 6218,
      "HLunderst": 6219,
      "ĨãĤ£": 6220,
      "HLtax": 6221,
      "HLcreat": 6222,
      "HLmÃ©": 6223,
      "HLbit": 6224,
      "HLbout": 6225,
      "HLfoot": 6226,
      "HLãģįãģĦ": 6227,
      "HLphil": 6228,
      "HLæľīåĲį": 6229,
      "arger": 6230,
      "HLaccord": 6231,
      "HLãĥĶãĥ³ãĤ¯": 6232,
      "HLsuccess": 6233,
      "fer": 6234,
      "light": 6235,
      "HLcy": 6236,
      "ift": 6237,
      "HLprice": 6238,
      "HLaliment": 6239,
      "åĵį": 6240,
      "åĢį": 6241,
      "ãĤıãĤĬ": 6242,
      "HLéłĳ": 6243,
      "HLpetite": 6244,
      "HLglob": 6245,
      "ponse": 6246,
      "HLãģĿãģ°": 6247,
      "HLprojet": 6248,
      "HLãģĬãģį": 6249,
      "è¯Ń": 6250,
      "HLé£Łäºĭ": 6251,
      "det": 6252,
      "pack": 6253,
      "ãĥĺ": 6254,
      "å°Ĩ": 6255,
      "HLæİĪ": 6256,
      "HLè¿Ļæł·": 6257,
      "HLçĲĥ": 6258,
      "HLè¨ĺå¿µ": 6259,
      "ÐµÑĢ": 6260,
      "twitter": 6261,
      "ias": 6262,
      "HLhol": 6263,
      "ãĤ¤ãĤŃ": 6264,
      "åįĥ": 6265,
      "HLãĤµãĥŀ": 6266,
      "HLéĽ¨": 6267,
      "æ²Ļ": 6268,
      "HLconsider": 6269,
      "HLæķĻå®¤": 6270,
      "HLproduction": 6271,
      "HLhommes": 6272,
      "ãĥ¼ãĥĬãĥ¼": 6273,
      "åĸ": 6274,
      "HLap": 6275,
      "HLmm": 6276,
      "HLnav": 6277,
      "HLä¹ł": 6278,
      "HLavons": 6279,
      "ç½ª": 6280,
      "HLmettre": 6281,
      "HLrapport": 6282,
      "ea": 6283,
      "HLcab": 6284,
      "HLä¸ļ": 6285,
      "HLpress": 6286,
      "HLcontract": 6287,
      "æ¶Ī": 6288,
      "center": 6289,
      "HLæ±Ĥäºº": 6290,
      "700": 6291,
      "aim": 6292,
      "å¦Ĥ": 6293,
      "HLbois": 6294,
      "ird": 6295,
      "HLkind": 6296,
      "HLä»¥åıĬ": 6297,
      "HLconsomm": 6298,
      "HLlivre": 6299,
      "HLãģĭãĤıãģĦãģĦ": 6300,
      "HLãĤħãģĿãģı": 6301,
      "ï¼°": 6302,
      "rop": 6303,
      "ãĥªãĥĥãĥĪ": 6304,
      "HLãĤıãĤī": 6305,
      "éĻĨ": 6306,
      "HLéĩĳé¡į": 6307,
      "èģĮ": 6308,
      "HLaccount": 6309,
      "éķĩ": 6310,
      "çĿ£": 6311,
      "HLannon": 6312,
      "HLè§£æ±º": 6313,
      "HLcopy": 6314,
      "();:": 6315,
      "ral": 6316,
      "atiques": 6317,
      "ï¼¯": 6318,
      "Ã¨le": 6319,
      "HLèĭ¦": 6320,
      "HLç¥ŀå½©": 6321,
      "çĻ¾": 6322,
      "âĺħ": 6323,
      "CO": 6324,
      "Ch": 6325,
      "UN": 6326,
      "UR": 6327,
      "HLèĵ": 6328,
      "HLfais": 6329,
      "HLwall": 6330,
      "åĽĽ": 6331,
      "HLprot": 6332,
      "HLprendre": 6333,
      "HLéļľ": 6334,
      "HLå¿ĥéħį": 6335,
      "HLdroit": 6336,
      "DIY": 6337,
      "HLéģİåİ»": 6338,
      "HLlou": 6339,
      "HLmaking": 6340,
      "HLmicro": 6341,
      "HLgal": 6342,
      "ãĥ«ãĥŀ": 6343,
      "æĿ¯": 6344,
      "HLåĨ·": 6345,
      "duction": 6346,
      "TA": 6347,
      "fig": 6348,
      "gin": 6349,
      "äºĪ": 6350,
      "HLprob": 6351,
      "HLåĬ©": 6352,
      "HLæĺ¾": 6353,
      "HLãģ©ãĤĮ": 6354,
      "ãĥªãĥ¼ãĥ³": 6355,
      "HLphotograph": 6356,
      "Ãªtes": 6357,
      "HLåıĭéģĶ": 6358,
      "HLãĤ¢ãĤ¤ãĥĨãĥł": 6359,
      "HLsites": 6360,
      "HLfavor": 6361,
      "ury": 6362,
      "HLvue": 6363,
      "HLãģĦãĤı": 6364,
      "ä¸Ī": 6365,
      "HLparf": 6366,
      "Ã¨g": 6367,
      "HLå¿Ĺ": 6368,
      "HLä¸įæĺ¯": 6369,
      "HLæĺŁ": 6370,
      "HLå¸ĥ": 6371,
      "HLæĸ¹åĲĳ": 6372,
      "HLçĽ®åīį": 6373,
      "è°ĥ": 6374,
      "HLéĸ¢è¥¿": 6375,
      "HLæ¨¡å¼ı": 6376,
      "Â´": 6377,
      "HLãģĴ": 6378,
      "HLæ¦Ĥ": 6379,
      "HLvict": 6380,
      "HLsuff": 6381,
      "HLcompos": 6382,
      "å¯º": 6383,
      "ç½Ĺ": 6384,
      "HLoffic": 6385,
      "HLæ¨ª": 6386,
      "HLç·¨": 6387,
      "HLaway": 6388,
      "Ar": 6389,
      "den": 6390,
      "HLçı": 6391,
      "HLdeb": 6392,
      "HLwest": 6393,
      "HLang": 6394,
      "HLåħĥ": 6395,
      "HLÃ©p": 6396,
      "HLmars": 6397,
      "HLåħ±åĲĮ": 6398,
      "HLç®Ģ": 6399,
      "ãĥ«ãĥĢãĥ¼": 6400,
      "HLdistrib": 6401,
      "HLéªĹå±Ģ": 6402,
      "cteur": 6403,
      "âĢĶ": 6404,
      "å¤ı": 6405,
      "HLä¸Ģå®ļ": 6406,
      "HLãĤ¤ãĥ³": 6407,
      "HLãĥĳãĥĥãĤ¯": 6408,
      "HLåħ¬éĸĭ": 6409,
      "HLæ³ķå¾ĭ": 6410,
      "Ã©vrier": 6411,
      "ãĤ®ãĥ¼": 6412,
      "HLprogramme": 6413,
      "HLprotection": 6414,
      "rir": 6415,
      "HLcd": 6416,
      "HLvÃ©r": 6417,
      "ãĤ¤ãĤ³": 6418,
      "HLrend": 6419,
      "åħ°": 6420,
      "HLcharge": 6421,
      "æĺĮ": 6422,
      "css": 6423,
      "HLæĶ¯æĮģ": 6424,
      "HLéŃĶ": 6425,
      "HLæ¥ŃåĭĻçĶ¨": 6426,
      "HLmachine": 6427,
      "HLoctobre": 6428,
      "HLwatch": 6429,
      "HLchois": 6430,
      "HLprise": 6431,
      "å±Ĭ": 6432,
      "HLsup": 6433,
      "ortun": 6434,
      "HLãĥŀãĥ³": 6435,
      "2005": 6436,
      "HLçµ¦": 6437,
      "èªī": 6438,
      "hn": 6439,
      "HLsr": 6440,
      "HLmort": 6441,
      "HLmight": 6442,
      "HLnike": 6443,
      "HLauc": 6444,
      "HLä¸įå®ī": 6445,
      "HLdÃ©l": 6446,
      "HLæĢ¥": 6447,
      "ç§Ģ": 6448,
      "HLphys": 6449,
      "HLè³ªåķı": 6450,
      "HLnews": 6451,
      "æĥł": 6452,
      "HLãĥĺãĤ¢": 6453,
      "HLãĤ¤ãĥ³ãĥĨãĥªãĤ¢": 6454,
      ":\\": 6455,
      "HLå³": 6456,
      "HLnation": 6457,
      "ified": 6458,
      "HLsever": 6459,
      "ems": 6460,
      "HLåĩºåı£": 6461,
      "HLæķĳ": 6462,
      "æķµ": 6463,
      "HLceux": 6464,
      "HLç«¶": 6465,
      "HLãĤĤãĤīãģĪ": 6466,
      "HLéĢīäºĶ": 6467,
      "HLcart": 6468,
      "HLnuits": 6469,
      "HLsearch": 6470,
      "HLãĤ³ãĥ¼ãĥī": 6471,
      "HLãĤ¤ãĥ³ãĥģ": 6472,
      "ãĤ«ãĥ¼ãĥī": 6473,
      "anger": 6474,
      "HLãĥĹãĥ©ãĥ³": 6475,
      "HLeducation": 6476,
      "æĨ": 6477,
      "èº": 6478,
      "HLevent": 6479,
      "HLãĥªãĤ¢": 6480,
      "ãĥĸãĥ©": 6481,
      "HLå¹´éĸĵ": 6482,
      "HLpremiÃ¨re": 6483,
      "Al": 6484,
      "rÃ©s": 6485,
      "HLer": 6486,
      "HLill": 6487,
      "HLcard": 6488,
      "HLcook": 6489,
      "HLense": 6490,
      "HLãĤ¹ãĤ«": 6491,
      "vern": 6492,
      "HLå°İ": 6493,
      "HLparten": 6494,
      "vious": 6495,
      "HLèº«ä½ĵ": 6496,
      "HLåĿļ": 6497,
      "HLçķªåı·": 6498,
      "HLnetwork": 6499,
      "HLhaving": 6500,
      "dr": 6501,
      "HLhor": 6502,
      "æľĿ": 6503,
      "å½©ç¥": 6504,
      "HLå¤©æ´¥": 6505,
      "HLeffet": 6506,
      "HLç¼ĸ": 6507,
      "HLæģĭæĦĽ": 6508,
      "HLmajor": 6509,
      "fre": 6510,
      "HLsant": 6511,
      "HLball": 6512,
      "HLå¤ľ": 6513,
      "idence": 6514,
      "æľĥ": 6515,
      "ãĥ³ãĤ°ãĥ«": 6516,
      "éģ¸": 6517,
      "HLä¸»ä»»": 6518,
      "æİĽ": 6519,
      "HLè¨Ńç½®": 6520,
      "ĈąĆ": 6521,
      "è¢ĭ": 6522,
      "310": 6523,
      "esh": 6524,
      "HLsand": 6525,
      "itable": 6526,
      "HLmix": 6527,
      "root": 6528,
      "HLunt": 6529,
      "ãĥ¬ãĥĥãĤ¯ãĤ¹": 6530,
      "HLforce": 6531,
      "HLãģįãĤĮ": 6532,
      "HLèĢĲ": 6533,
      "web": 6534,
      "HLãĤĤãĤīãģ£": 6535,
      "é¦Ļ": 6536,
      "HLåĸľ": 6537,
      "esp": 6538,
      "HLtimes": 6539,
      "HLlink": 6540,
      "HLéŁ": 6541,
      "æĺł": 6542,
      "è¿İ": 6543,
      "éĹ®": 6544,
      "HLbuy": 6545,
      "HLrapide": 6546,
      "HLä»·æł¼": 6547,
      "HLfit": 6548,
      "âĢ¢": 6549,
      "ä»ĸ": 6550,
      "ãģĹãģŁ": 6551,
      "aug": 6552,
      "ï½°": 6553,
      "HLãĤµãĥĿãĥ¼ãĥĪ": 6554,
      "HLãĥĢãĤ¤ãĥ¤": 6555,
      "HLæĥħåĨµ": 6556,
      "cover": 6557,
      "HLç¨³èµļ": 6558,
      "\");:": 6559,
      "ãģ½": 6560,
      "HLãģĤãĤī": 6561,
      "HLå¹²": 6562,
      "thers": 6563,
      "éĿŀ": 6564,
      "HLéĻį": 6565,
      "HLçī¹åĪ¥": 6566,
      "HLguide": 6567,
      "çļ®": 6568,
      "HLåį°è±¡": 6569,
      "aj": 6570,
      "han": 6571,
      "uelle": 6572,
      "Ð±": 6573,
      "info": 6574,
      "ores": 6575,
      "HLæ±ºå®ļ": 6576,
      "ãĤ°ãĥ©ãĥł": 6577,
      "HLjard": 6578,
      "\":\"\",\"": 6579,
      "HLéħįéĢģ": 6580,
      "HLå¿ĥçĲĨ": 6581,
      "HLpresent": 6582,
      "HLåħ·ä½ĵ": 6583,
      "ving": 6584,
      "ency": 6585,
      "ãģ»": 6586,
      "atives": 6587,
      "HLmiss": 6588,
      "HLmÃ©d": 6589,
      "HLçĶŁäº§": 6590,
      "HLè¡£": 6591,
      "HLåĲĮæĻĤ": 6592,
      "çĻ»": 6593,
      "HLchoix": 6594,
      "ibilitÃ©": 6595,
      "rÃ©e": 6596,
      "é²": 6597,
      "Ã©qu": 6598,
      "HLwalk": 6599,
      "HLretr": 6600,
      "åĮ»": 6601,
      "HLjeun": 6602,
      "HLãĤ¨ãĥªãĤ¢": 6603,
      "HLçĶ¨æĦı": 6604,
      "HLãĤ¹ãĤ¿ãĤ¤ãĥ«": 6605,
      "HLãĥĶãĤ¢": 6606,
      "HLé¢Ħæµĭ": 6607,
      "HLãĤªãĤ¹ãĤ¹ãĥ¡": 6608,
      "âĻ": 6609,
      "prim": 6610,
      "HLshort": 6611,
      "0828": 6612,
      "HLãĥīãĥ«": 6613,
      "HLäºĭä»¶": 6614,
      "æĶ¶": 6615,
      "HLcrit": 6616,
      "HLèİ·": 6617,
      "HLconnect": 6618,
      "HLå¤ķ": 6619,
      "oto": 6620,
      "ãĤ¤ãĥĹ": 6621,
      "HLaujourd": 6622,
      "HLkey": 6623,
      "ãģ¡ãĤī": 6624,
      "ç»ĩ": 6625,
      "HLãģĨãĤĵ": 6626,
      "HLéĻĪ": 6627,
      "HLä¿ĿèŃ·": 6628,
      "HLãĥķãĤ¡ãĥ³": 6629,
      "èĭı": 6630,
      "HLåĳ¨å¹´": 6631,
      "HLå¾Īå¤ļ": 6632,
      "OS": 6633,
      "HLsus": 6634,
      "éĢ²": 6635,
      "HLãĥĲãĥ³ãĤº": 6636,
      "HLåŃ£": 6637,
      "ç¤¼": 6638,
      "HLãģįãģ®": 6639,
      "HLcarte": 6640,
      "æİ§": 6641,
      "HLeffic": 6642,
      "HLcustomer": 6643,
      "HLsource": 6644,
      "HLwomen": 6645,
      "HLéłĳå¼µ": 6646,
      "HLlum": 6647,
      "HLmi": 6648,
      "HLmac": 6649,
      "HLbody": 6650,
      "acter": 6651,
      "HLquick": 6652,
      "Ã¨mes": 6653,
      "HLstruct": 6654,
      "HLãĤ·ãĤ§": 6655,
      "ization": 6656,
      "HLåŃ¦ä¹ł": 6657,
      "HLãĤ¢ãĥ«ãĥĲ": 6658,
      "HLunderstand": 6659,
      "æ¿Ģ": 6660,
      "HLæĩ": 6661,
      "HLgest": 6662,
      "ãĥ³ãĤ¬": 6663,
      "occ": 6664,
      "HLä½Ĩ": 6665,
      "odes": 6666,
      "ended": 6667,
      "HLãĤĦãĤĭ": 6668,
      "HLteach": 6669,
      "HLäºĭæķħ": 6670,
      "HLãĤ¸ãĤ§": 6671,
      "HLvisit": 6672,
      "itude": 6673,
      "ball": 6674,
      "±¼": 6675,
      "ºéºĹ": 6676,
      "HLapr": 6677,
      "HLãģĦãģ§": 6678,
      "HLtoget": 6679,
      "HLãĤ¢ãĥĭ": 6680,
      "HLãĤĤãģ¨": 6681,
      "å¹ķ": 6682,
      "HLclient": 6683,
      "HLperfect": 6684,
      "HLä½ľä¸º": 6685,
      "HLéļİ": 6686,
      "HLè¿ĺæĺ¯": 6687,
      "ãĥ¼ãĥªãĥ³ãĤ°": 6688,
      "HLåĽłä¸º": 6689,
      "App": 6690,
      "æŁĵ": 6691,
      "HLgraph": 6692,
      "HLseul": 6693,
      "HLasse": 6694,
      "ending": 6695,
      "HLmove": 6696,
      "iled": 6697,
      "ãĤ·ãĥ¼": 6698,
      "HLä¿¡çĶ¨": 6699,
      "HLè®¾è®¡": 6700,
      "åĦ¿": 6701,
      "HLãģªãĤĵãģĭ": 6702,
      "aid": 6703,
      "gen": 6704,
      "HLlÃł": 6705,
      "empl": 6706,
      "HLclim": 6707,
      "æ¸©": 6708,
      "HLãĥĪãĥª": 6709,
      "HLæŃĮ": 6710,
      "Ã©cess": 6711,
      "etting": 6712,
      "vention": 6713,
      "HLDÃ©c": 6714,
      "redi": 6715,
      "HLç¶ºéºĹ": 6716,
      "HLtogether": 6717,
      "412": 6718,
      "HLgard": 6719,
      "HLãģŁãģ¾": 6720,
      "HLæķħ": 6721,
      "HLãģłãģĹ": 6722,
      "HLemail": 6723,
      "HLè¨Ńè¨Ī": 6724,
      "HLåħŃåĲĪ": 6725,
      "HLpendant": 6726,
      "HLå®¿": 6727,
      "ires": 6728,
      "imum": 6729,
      "è§Ĵ": 6730,
      "HLblue": 6731,
      "soft": 6732,
      "HLè´£": 6733,
      "æºª": 6734,
      "HLcover": 6735,
      "HLcertains": 6736,
      "HLopportun": 6737,
      "HLafr": 6738,
      "HLfille": 6739,
      "HLhar": 6740,
      "HLalb": 6741,
      "HLæī¹": 6742,
      "è¿°": 6743,
      "HLãĤ¯ãĥªãĤ¢": 6744,
      "HLäººæīį": 6745,
      "HLallow": 6746,
      "éĶĢ": 6747,
      "çģ½": 6748,
      "HLäº§ä¸ļ": 6749,
      "St": 6750,
      "body": 6751,
      "HLçį": 6752,
      "åı³": 6753,
      "ained": 6754,
      "ï½¥": 6755,
      "HLåĩºçīĪ": 6756,
      "HLãĥĹãĥª": 6757,
      "çº¦": 6758,
      "HLheart": 6759,
      "HLgoogle": 6760,
      "è¼ª": 6761,
      "HLsalon": 6762,
      "é¦Ĩ": 6763,
      "HLãĥ¤ãĥª": 6764,
      "HLãĤĨãĤĭ": 6765,
      "082889": 6766,
      "HLhu": 6767,
      "HLãģ¾ãģĹ": 6768,
      "åį¡": 6769,
      "HLçĶµè¯Ŀ": 6770,
      "let": 6771,
      "mo": 6772,
      "mail": 6773,
      "HLcand": 6774,
      "HLanc": 6775,
      "HLãĤ¹ãĥª": 6776,
      "HLspace": 6777,
      "ãĥģãĥ¥": 6778,
      "HLæĭī": 6779,
      "HLéĺ²å¾¡": 6780,
      "HLessent": 6781,
      "HLuniversity": 6782,
      "HLtraining": 6783,
      "HLè¼¸": 6784,
      "HLseptembre": 6785,
      "ĆĈ": 6786,
      "index": 6787,
      "itive": 6788,
      "HLrue": 6789,
      "åĪĻ": 6790,
      "HLéĢĻ": 6791,
      "åĨ³": 6792,
      "prise": 6793,
      "HLæľĢçµĤ": 6794,
      "HLçĶŁåĳ½": 6795,
      "HLç§ĭ": 6796,
      "HLä½ľæĪĲ": 6797,
      "éłĥ": 6798,
      "ĈĆćą": 6799,
      "HLexcell": 6800,
      "OR": 6801,
      "YI": 6802,
      "cp": 6803,
      "HLscr": 6804,
      "HLbene": 6805,
      "HLnÃ©cess": 6806,
      "uter": 6807,
      "HLåĲĳ": 6808,
      "HLÃ©lectr": 6809,
      "HLtrue": 6810,
      "HLä¸įè¦ģ": 6811,
      "HLä¸ĭåįĪ": 6812,
      "HLä¹¾": 6813,
      "æķĹ": 6814,
      "HLéĢļä¿¡": 6815,
      "ãĤ·ãĤ¢": 6816,
      "HLäºĶçłģ": 6817,
      "HLéĸĢåºĹ": 6818,
      "HLsÃ©curitÃ©": 6819,
      "ÑĤ": 6820,
      "HLåĴ": 6821,
      "HLsn": 6822,
      "HLni": 6823,
      "ä¸Ķ": 6824,
      "HLäº¿": 6825,
      "HLçīĽ": 6826,
      "HLç»´": 6827,
      "iÃ¨me": 6828,
      "clus": 6829,
      "HLç§ģ": 6830,
      "HLæ¯Ľ": 6831,
      "HLtransport": 6832,
      "ãģ©ãĤĵ": 6833,
      "HLdonnÃ©es": 6834,
      "related": 6835,
      "HLtradition": 6836,
      "HLéĥ½å¸Ĥ": 6837,
      "HLãģ§ãģĻãģĭãĤī": 6838,
      "çĵ": 6839,
      "HLcell": 6840,
      "HLfield": 6841,
      "HLinf": 6842,
      "roll": 6843,
      "olution": 6844,
      "HLå¤§ä¼ļ": 6845,
      "HLfront": 6846,
      "\":\".": 6847,
      "HLretour": 6848,
      "HLåı°æ¹¾": 6849,
      "HLbelie": 6850,
      "An": 6851,
      "TC": 6852,
      "à¤": 6853,
      "HLsix": 6854,
      "urb": 6855,
      "HLlaw": 6856,
      "HLyork": 6857,
      "HLåĩºæ¼Ķ": 6858,
      "ãĥŁãĥ¥ãĤ¦": 6859,
      "ç´Ļ": 6860,
      "HLgovern": 6861,
      "....": 6862,
      "HLäºĮåħ«": 6863,
      "HLäºĪæĥ³": 6864,
      "HLrights": 6865,
      "HLfourn": 6866,
      "HLå©ļæ´»": 6867,
      "HLéĢ£çµ¡": 6868,
      "HLtal": 6869,
      "HLfont": 6870,
      "urer": 6871,
      "HLgros": 6872,
      "agram": 6873,
      "ãĥ³ãĥĵ": 6874,
      "HLseu": 6875,
      "HLtry": 6876,
      "itement": 6877,
      "HLåĨĽ": 6878,
      "HLæł¸": 6879,
      "HLãĥĿãĥª": 6880,
      "HLpermett": 6881,
      "HLåĵģè³ª": 6882,
      "HLcalcul": 6883,
      "HLç®Ĺ": 6884,
      "HLãģľãģ²": 6885,
      "!!": 6886,
      "HLada": 6887,
      "HLinit": 6888,
      "ources": 6889,
      "HLenerg": 6890,
      "åĳ¨": 6891,
      "è³ŀ": 6892,
      "HLãĥĻãĥ«ãĥĪ": 6893,
      "HLãģ©ãģĨãģĹãģ¦": 6894,
      "HLcommunity": 6895,
      "HLç§»åĭķ": 6896,
      "HLè¿½åĬł": 6897,
      "ãĥªãĥ¼ãĥĮ": 6898,
      "HLéļľå®³": 6899,
      "vd": 6900,
      "xte": 6901,
      "¼åĲĪ": 6902,
      "éĬ": 6903,
      "HLsale": 6904,
      "ãĤ¯ãĤµ": 6905,
      "ãĥ³ãĥĬ": 6906,
      "iez": 6907,
      "oph": 6908,
      "ãĥĥãĤ¸": 6909,
      "HLåħ¨éĿ¢": 6910,
      "éľ²": 6911,
      "HLæ¯į": 6912,
      "æħ®": 6913,
      "æĶ¿åºľ": 6914,
      "HLãģĻãģİãĤĭ": 6915,
      "HLãĤ¢ãĤ¯ãĤ»ãĤµ": 6916,
      "HLpersonal": 6917,
      "HLvraiment": 6918,
      "ç¢º": 6919,
      "HLtag": 6920,
      "HLgod": 6921,
      "HLäºĨ": 6922,
      "HLå¤§äºĭ": 6923,
      "åº«": 6924,
      "éĢ±": 6925,
      "HLãĤµãĥł": 6926,
      "opÃ©": 6927,
      "HLpeint": 6928,
      "HLå®īå®ļ": 6929,
      "Ã§on": 6930,
      "HLæŀĹ": 6931,
      "HLåħ¶ä»ĸ": 6932,
      "ãĥ¼ãĥĿãĥ³": 6933,
      "HLnovembre": 6934,
      "HLavril": 6935,
      "oÃ»t": 6936,
      "HLspr": 6937,
      "HLfÃ©vrier": 6938,
      "ķãĤ©": 6939,
      "HLless": 6940,
      "HLãĤ«ãĥ«": 6941,
      "åĭĿ": 6942,
      "grad": 6943,
      "udi": 6944,
      "æ¬²": 6945,
      "HLãģĨãģ©ãĤĵ": 6946,
      "HLcasio": 6947,
      "HLãģĦãģŁãģłãģĦ": 6948,
      "ç±į": 6949,
      "HLéģĭåĭķ": 6950,
      "HLperformance": 6951,
      "HLmass": 6952,
      "HLvac": 6953,
      "cture": 6954,
      "HLcharg": 6955,
      "å¤ª": 6956,
      "ills": 6957,
      "HLèµļ": 6958,
      "iences": 6959,
      "HLcelui": 6960,
      "HLåħħéĽ»": 6961,
      "HLé¡§å®¢": 6962,
      "Qu": 6963,
      "va": 6964,
      "HLsÃ©rie": 6965,
      "HLfalse": 6966,
      "HLfund": 6967,
      "HLrien": 6968,
      "HLåĪ°": 6969,
      "HLãģ¨ãģĬ": 6970,
      "HLå¼Ģå§ĭ": 6971,
      "é¡¹": 6972,
      "HLãĥŁãĥ¥ãĤ¦": 6973,
      "HLãĤ¦ãĤ£": 6974,
      "ãĥ³ãĤ¿ãĥ«": 6975,
      "HLneeds": 6976,
      "HLserrur": 6977,
      "HLjamais": 6978,
      "jets": 6979,
      "ners": 6980,
      "alitÃ©": 6981,
      "ãĥªãĥ¼ãĤ¹": 6982,
      "ãĥ¼ãĤ¢": 6983,
      "116": 6984,
      "HLãĤ»ãĥ¼ãĥ«": 6985,
      "HLï½Ĺ": 6986,
      "HLsuppl": 6987,
      "HLcourt": 6988,
      "HLæĤ£": 6989,
      "HLãĥŁãĥ¥ãĤ¦ãĥŁãĥ¥ãĤ¦": 6990,
      "ilt": 6991,
      "HLvia": 6992,
      "HLvert": 6993,
      "HLrich": 6994,
      "ãĥ³ãĥŀ": 6995,
      "HLproc": 6996,
      "HLstay": 6997,
      "HLãĥĲãĥ¬": 6998,
      "å¾Į": 6999,
      "ç»ĵ": 7000,
      "åİħ": 7001,
      "ãĥĲãĥĥãĤ°": 7002,
      "HLãĥıãĤ¤": 7003,
      "Fr": 7004,
      "ench": 7005,
      "atif": 7006,
      "ãĥ©ãĥ«": 7007,
      "HLæľŃ": 7008,
      "HLãģĭãģĽ": 7009,
      "\"::": 7010,
      "HLæīĭæ®µ": 7011,
      "HLãĤ·ãĥ³ãĥĹãĥ«": 7012,
      "ãĥ³ãĥĢãĥ¼": 7013,
      "HLèĲ¥": 7014,
      "HLgratuite": 7015,
      "HLapplication": 7016,
      "ability": 7017,
      "HLãģĿãģĵãģ§": 7018,
      "OF": 7019,
      "HLåªĴ": 7020,
      "HLside": 7021,
      "ism": 7022,
      "HLfall": 7023,
      "å¤Ł": 7024,
      "Ã¨res": 7025,
      "HLéĩĩ": 7026,
      "HLæĻĤçµ¦": 7027,
      "HLåĲĮæĹ¶": 7028,
      "valu": 7029,
      "HLçİ°åľº": 7030,
      "HLrencontres": 7031,
      "HLãĤ¹ãĥŀãĥ¼ãĥĪ": 7032,
      "HLviol": 7033,
      "HLcirc": 7034,
      "GB": 7035,
      "pÃ©r": 7036,
      "®å½±": 7037,
      "HLwin": 7038,
      "HLvidÃ©": 7039,
      "HLgreen": 7040,
      "HLéĺħ": 7041,
      "HLå»ºçī©": 7042,
      "æ©ĭ": 7043,
      "âĸł": 7044,
      "HLæ»ļçĲĥ": 7045,
      "time": 7046,
      "HLtel": 7047,
      "anqu": 7048,
      "isc": 7049,
      "HLmr": 7050,
      "åįı": 7051,
      "HLãĥ©ãĥ¼ãĥ¡ãĥ³": 7052,
      "HLsoir": 7053,
      "HLdernier": 7054,
      "HLfuture": 7055,
      "é¥°": 7056,
      "HLæĿĲæĸĻ": 7057,
      "HLproperty": 7058,
      "ji": 7059,
      "ana": 7060,
      "HLgouver": 7061,
      "103": 7062,
      "HLengl": 7063,
      "HLchau": 7064,
      "HLfort": 7065,
      "åºĬ": 7066,
      "HLãĤ¢ãĥ¬": 7067,
      "HLçľģ": 7068,
      "HLéħįä¿¡": 7069,
      "HLvalue": 7070,
      "HLfacebook": 7071,
      "HLåĪĽæĸ°": 7072,
      "null": 7073,
      "é®®": 7074,
      "HLãĤ¶": 7075,
      "ete": 7076,
      "HLvideo": 7077,
      "äº«": 7078,
      "HLemb": 7079,
      "HLalong": 7080,
      "HLãĤĤãĤĬ": 7081,
      "ãģ¾ãģ¾": 7082,
      "HLçĦ¡çĲĨ": 7083,
      "HLrÃ©se": 7084,
      "è§Ī": 7085,
      "HLãĤ·ãĤ¢": 7086,
      "HLãģ¯ãģĦ": 7087,
      "æ¯į": 7088,
      "HLäºĭæĥħ": 7089,
      "HLç¥ŀéĢļ": 7090,
      "æĽľæĹ¥": 7091,
      "HLuntil": 7092,
      "({": 7093,
      "hod": 7094,
      "xx": 7095,
      "HLpdf": 7096,
      "HLcin": 7097,
      "ï¼ł": 7098,
      "HLleft": 7099,
      "ived": 7100,
      "ï½ľ": 7101,
      "HLæİ¢": 7102,
      "HLãĤ¯ãĥ¼ãĥĿãĥ³": 7103,
      "180": 7104,
      "ç»į": 7105,
      "åİļ": 7106,
      "HLå¯Ĩ": 7107,
      "HLäºĮäºº": 7108,
      "HLæŃ£è¦ı": 7109,
      "HLå¸Ĥæ°ĳ": 7110,
      "HLéĺ²æ°´": 7111,
      "HLæīĢä»¥": 7112,
      "________": 7113,
      "çıŃ": 7114,
      "iP": 7115,
      "ãģ¹": 7116,
      "HLtar": 7117,
      "aring": 7118,
      "107": 7119,
      "HLãĤªãĥķãĤ£": 7120,
      "HLçİī": 7121,
      "éĽ¢": 7122,
      "HLsoft": 7123,
      "æĦ¿": 7124,
      "HLæıĲçİ°": 7125,
      "php": 7126,
      "iÃ¨rement": 7127,
      "abilitÃ©": 7128,
      "HLèĪĪåĳ³": 7129,
      "HLãĥĢãĤ¤ãĥĭãĥ³ãĤ°": 7130,
      "HLäºĨè§£": 7131,
      "like": 7132,
      "ny": 7133,
      "½Ĳ": 7134,
      "isÃ©": 7135,
      "quoi": 7136,
      "HLèµ¤": 7137,
      "360": 7138,
      "HLåŃ¸": 7139,
      "HLæĺ¼": 7140,
      "ï¼ĳï¼ķ": 7141,
      "HLãģĵãĤĮãĤī": 7142,
      "HLcommerc": 7143,
      "HLçµĲæ§ĭ": 7144,
      "ãĤ½ãĥ³": 7145,
      "HLãĤĤãĤīãģĦ": 7146,
      "HLæĺİæĹ¥": 7147,
      "SI": 7148,
      "kt": 7149,
      "sr": 7150,
      "uring": 7151,
      "HLåı³": 7152,
      "HLãĤ³ãĥ³": 7153,
      "éĢ¢": 7154,
      "before": 7155,
      "HLthanks": 7156,
      "HLfacil": 7157,
      "HLãĤ¢ãĤ¯ãĤ»ãĤ¹": 7158,
      "HLmulti": 7159,
      "HLãĥķãĥŃãĥ³ãĥĪ": 7160,
      "HLãĤĦãģ£ãģ±ãĤĬ": 7161,
      "HLèµļéĴ±": 7162,
      "ky": 7163,
      "mer": 7164,
      "HLurl": 7165,
      "erial": 7166,
      "HLcra": 7167,
      "HLbelle": 7168,
      "HLobs": 7169,
      "HLothers": 7170,
      "åħ¶": 7171,
      "HLãģĹãĤģ": 7172,
      "HLéĢı": 7173,
      "HLéĢĶ": 7174,
      "HLãĤ«ãĥ¼": 7175,
      "HLè´¦": 7176,
      "Ã¢ce": 7177,
      "HLuu": 7178,
      "value": 7179,
      "erved": 7180,
      "HLgarant": 7181,
      "HLextra": 7182,
      "HLindustry": 7183,
      "AM": 7184,
      "å¤į": 7185,
      "ãĥ¼ãĤµ": 7186,
      "HLãĥ©ãĤ¤": 7187,
      "HLãģ»ãģĹãģĦ": 7188,
      "HLçĶµèĦĳ": 7189,
      "HLcoup": 7190,
      "HLãģĦãģ£ãģ±ãģĦ": 7191,
      "HLãģĵãģĨãģĦãģĨ": 7192,
      "èĹı": 7193,
      "HLéĢ±éĸĵ": 7194,
      "HLbreak": 7195,
      ":'": 7196,
      "HLmich": 7197,
      "oles": 7198,
      "HLä»Ļ": 7199,
      "HLãĤ¢ãĥī": 7200,
      "HLåĳ¼": 7201,
      "ãĥ¼ãĥ©ãĥ¼": 7202,
      "HLæĴ®å½±": 7203,
      "HLãĤ°ãĥ«ãĥ¼ãĥĹ": 7204,
      "&&": 7205,
      "][": 7206,
      "ç¶": 7207,
      "atoire": 7208,
      "HLmieux": 7209,
      "leg": 7210,
      "amb": 7211,
      "ãĥ¬ãĥ¼ãĥĪ": 7212,
      "HLãĤ¹ãĥ¼ãĥĦ": 7213,
      "ãĤ¸ãĤ¢": 7214,
      "HLä¹°": 7215,
      "HLclos": 7216,
      "HLimport": 7217,
      "HLcompan": 7218,
      "HLãĥŃãĥ¬ãĥĥãĤ¯ãĤ¹": 7219,
      "æĭ©": 7220,
      "HLåĳĬ": 7221,
      "HLç´łäºº": 7222,
      "HLè¨Īç®Ĺ": 7223,
      "HLnaturel": 7224,
      "flex": 7225,
      "HLé©": 7226,
      "HLmount": 7227,
      "HLdef": 7228,
      "ãĥ¼ãĥ¬": 7229,
      "åĪ¸": 7230,
      "ocr": 7231,
      "ãĤīãģı": 7232,
      "HLæ³¨çĽ®": 7233,
      "HLæķ°æį®": 7234,
      "HLçº¿": 7235,
      "HLå£ģ": 7236,
      "HLstandard": 7237,
      "HLå°İåħ¥": 7238,
      "ªåĬĽ": 7239,
      "ĽĬ": 7240,
      "HLåĻ¨": 7241,
      "HLtreat": 7242,
      "HLba": 7243,
      "ä»Ĭ": 7244,
      "ades": 7245,
      "çĽ¤": 7246,
      "HLãĥ¬ãĥĻãĥ«": 7247,
      "è´Ń": 7248,
      "onder": 7249,
      "ä¼ł": 7250,
      "HLè¾¾": 7251,
      "èĮĥ": 7252,
      "HLãĥ©ãĤ¤ãĥĸ": 7253,
      "eff": 7254,
      "oh": 7255,
      "HLta": 7256,
      "ãĤ¯ãĤ»": 7257,
      "ouss": 7258,
      "HLstat": 7259,
      "HLpasse": 7260,
      "HLdisp": 7261,
      "HLæĮģ": 7262,
      "HLannÃ©es": 7263,
      "HLuk": 7264,
      "HLè²łæĭħ": 7265,
      "ãĥĥãĤ·ãĥ³ãĤ°": 7266,
      "HLä½Ĩæĺ¯": 7267,
      "çłĶ": 7268,
      "ĳŀ": 7269,
      "HLrent": 7270,
      "HLoften": 7271,
      "ãĥ³ãĥĸ": 7272,
      "HLparc": 7273,
      "HLæī¶": 7274,
      "HLãĤĤãģ£": 7275,
      "HLåİ»": 7276,
      "HLcorps": 7277,
      "HLèī¯": 7278,
      "HLconseil": 7279,
      "HLmessage": 7280,
      "HLbenef": 7281,
      "max": 7282,
      "ql": 7283,
      "HLcelle": 7284,
      "HLchall": 7285,
      "Ã¨te": 7286,
      "HLãģĭãģĹ": 7287,
      "HLke": 7288,
      "å¹Į": 7289,
      "HLdÃ©cembre": 7290,
      "HLãĥĩãĤ¹ãĤ¯": 7291,
      "HLmini": 7292,
      "HLæ¥ŃçķĮ": 7293,
      "HLbased": 7294,
      "HLåĤµ": 7295,
      "HLcontrib": 7296,
      "HLæľŃå¹Į": 7297,
      "dl": 7298,
      "ga": 7299,
      "ony": 7300,
      "onde": 7301,
      "lem": 7302,
      "ili": 7303,
      "HLåı¸": 7304,
      "ester": 7305,
      "HLãĤ¹ãĤ±": 7306,
      "iquer": 7307,
      "HLè¿·": 7308,
      "ãĤ¦ãĥł": 7309,
      "dec": 7310,
      "æĶ¯": 7311,
      "Ã©nÃ©": 7312,
      "HLä¼ģçĶ»": 7313,
      "è¿ĳå¹³": 7314,
      "HLãģĹãģĭãĤĤ": 7315,
      "HLæĶ¿çŃĸ": 7316,
      "ahoo": 7317,
      "HLãĥĪãĥ©ãĥĸãĥ«": 7318,
      "HLcontinu": 7319,
      "HLè¯Ħè®º": 7320,
      "columns": 7321,
      "HLsettings": 7322,
      "').": 7323,
      "AT": 7324,
      "uy": 7325,
      "Ã«": 7326,
      "èĽĭ": 7327,
      "åı¥": 7328,
      "iful": 7329,
      "HLbeh": 7330,
      "ãĥĥãĤµ": 7331,
      "HLéĻĦ": 7332,
      "HLãĤ´ãĥ¼ãĥ«ãĥī": 7333,
      "HLå¹¿å·ŀ": 7334,
      "è¬Ŀ": 7335,
      "HLspÃ©cial": 7336,
      "ãĤ¤ãĤ¨ãĥĥãĥĪ": 7337,
      "HLä¹łè¿ĳå¹³": 7338,
      "HLrele": 7339,
      "HLå¤§éĩı": 7340,
      "ãĥ¼ãĤ½": 7341,
      "HLéģĹ": 7342,
      "HLoui": 7343,
      "HLãģĨãģ¾": 7344,
      "ãĤ¿ãĥ¼ãĥ³": 7345,
      "HLä»ķä¸Ĭ": 7346,
      "HLç¦ģ": 7347,
      "HLrÃ©sult": 7348,
      "HLåĽ¾çīĩ": 7349,
      "AC": 7350,
      "zz": 7351,
      "HLutil": 7352,
      "ãĥ³ãĤ·": 7353,
      "HLãĥĲãĤ¤ãĤ¯": 7354,
      "HLãĤ»ãĥ«": 7355,
      "å°Ħ": 7356,
      "HLãĤªãĥ¼ãĥĹ": 7357,
      "HLä¿ĥ": 7358,
      "HLaccept": 7359,
      "HLåľ°åħĥ": 7360,
      "éħ¸": 7361,
      "onnement": 7362,
      "HLå±ķéĸĭ": 7363,
      "HLè¢«å®³": 7364,
      "wer": 7365,
      "âĦ": 7366,
      "HLbud": 7367,
      "quote": 7368,
      "1039": 7369,
      "igr": 7370,
      "HLãĤ¹ãĤ¯": 7371,
      "HLãĤ¢ãĥĳ": 7372,
      "ured": 7373,
      "HLdÃ©b": 7374,
      "éĿĴ": 7375,
      "HLstarted": 7376,
      "HLç³»ç»Ł": 7377,
      "èºį": 7378,
      "5000": 7379,
      "latest": 7380,
      "HLthing": 7381,
      "HLfer": 7382,
      "HLroute": 7383,
      "HLãģªãģĳãĤĮ": 7384,
      "ãĥ«ãĤ¿": 7385,
      "HLpourquoi": 7386,
      "HLãĥ©ãĥ³ãĤ¯": 7387,
      "HLæŃ»": 7388,
      "HLè¡Ģ": 7389,
      "HLpred": 7390,
      "HLãģķãģ¦": 7391,
      "èģŀ": 7392,
      "HLç´łæķµ": 7393,
      "HLæĬĬçİ©": 7394,
      "HLjardin": 7395,
      "HLgold": 7396,
      "ãĤ¯ãĤ·ãĥ§ãĥ³": 7397,
      "ä¹¡": 7398,
      "HLåĽ¢": 7399,
      "åįĢ": 7400,
      "ãĤ¦ãĥ³ãĥī": 7401,
      "HLãĥªãĥ³ãĤ°": 7402,
      "æµ¦": 7403,
      "HLåĽ½æ°ĳ": 7404,
      "2004": 7405,
      "ï¼ĳï¼Ĵ": 7406,
      "HLdispos": 7407,
      "HLè¶£": 7408,
      "HLãĥ¦ãĥ¼ãĤ¶ãĥ¼": 7409,
      "HLclear": 7410,
      "HLéĢīæĭ©": 7411,
      "HLå¤±æķĹ": 7412,
      "HLsituation": 7413,
      "RO": 7414,
      "su": 7415,
      "Łãĥ³ãĤ°": 7416,
      "HLä¸¥": 7417,
      "HLrange": 7418,
      "HLgre": 7419,
      "ãĥ©ãĤ¤": 7420,
      "HLãģ¾ãģķ": 7421,
      "HLãĤ»ãĥªãĥ¼ãĥĮ": 7422,
      "è¿ľ": 7423,
      "HLãĥĳãĥĳ": 7424,
      "ãĤŃãĤ·": 7425,
      "HLãĥĸãĥ©ãĤ¦ãĥ³": 7426,
      "ï¾ĥï½": 7427,
      "HLpersonne": 7428,
      "HLãĤ®ãĥ£": 7429,
      "ĈĆą": 7430,
      "HLèĳĹ": 7431,
      "MAX": 7432,
      "HLvoyage": 7433,
      "HLpierre": 7434,
      "HLhaute": 7435,
      "HLçĬ": 7436,
      "HLhon": 7437,
      "HLey": 7438,
      "HLå¤§å¥½": 7439,
      "HLchose": 7440,
      "HLãĤ³ãĥ³ãĥĨ": 7441,
      "åĨł": 7442,
      "HLè¯´": 7443,
      "æİĪ": 7444,
      "HLãĥ¯ãĥ¼ãĤ¯": 7445,
      "ç®±": 7446,
      "HLãĥĹãĥ©ãĤ¹": 7447,
      "HLåħ³äºİ": 7448,
      "HLmomoj": 7449,
      "En": 7450,
      "tb": 7451,
      "é±¼": 7452,
      "HLtom": 7453,
      "HLtend": 7454,
      "HLtick": 7455,
      "HLaction": 7456,
      "ãĤ¤ãĥ¼ãĥ«": 7457,
      "HLroy": 7458,
      "acy": 7459,
      "ãģĭãģĳ": 7460,
      "HLãĤ¢ãĥª": 7461,
      "153": 7462,
      "HLsho": 7463,
      "HLãĤŃãĥ¼ãĥ": 7464,
      "HLæľ¬äºº": 7465,
      "HLå®ŀçİ°": 7466,
      "ready": 7467,
      "HLãĤ¢ãĤ¦ãĥĪãĥ¬ãĥĥãĥĪ": 7468,
      "HLæ¥µ": 7469,
      "HLdra": 7470,
      "HLos": 7471,
      "ctor": 7472,
      "HLãģ¾ãģĤ": 7473,
      "HLåĨ³": 7474,
      "HLãĤ¤ãĥģ": 7475,
      "HLå¼Ģå±ķ": 7476,
      "HLæĹ¶åĢĻ": 7477,
      "HLãĥģãĥ¼ãĥł": 7478,
      "HLãĤ±ãĥ¼ãĥĸãĥ«": 7479,
      "HLéĽ»æºĲ": 7480,
      "HLcorre": 7481,
      "HLè·Ŀ": 7482,
      "HLåıĭäºº": 7483,
      "HLåĮħæĭ¬": 7484,
      "HLmeilleur": 7485,
      "HLå·¨ä¹³": 7486,
      "HLfriend": 7487,
      "HLseveral": 7488,
      "ios": 7489,
      "å»": 7490,
      "HLdir": 7491,
      "HLãĥ´": 7492,
      "HLèĽĭ": 7493,
      "HLwed": 7494,
      "change": 7495,
      "ocol": 7496,
      "HLbeach": 7497,
      "HLåĽºå®ļ": 7498,
      "HLnear": 7499,
      "160": 7500,
      "HLä¹Į": 7501,
      "2546": 7502,
      "HLè´Ł": 7503,
      "iction": 7504,
      "(^": 7505,
      "Bl": 7506,
      "eurs": 7507,
      "ling": 7508,
      "ï¿": 7509,
      "HLmoney": 7510,
      "ãĤ¯ãĤ¹": 7511,
      "çĶº": 7512,
      "åħŃ": 7513,
      "HLåĲ¸": 7514,
      "HLåĩºéĢ¢": 7515,
      "HLãģ¤ãģª": 7516,
      "è§Ĥ": 7517,
      "HLéĿĻ": 7518,
      "HLãĥĢãĤ¤ãĤ¨ãĥĥãĥĪ": 7519,
      "HLæ··": 7520,
      "HLæ©Łä¼ļ": 7521,
      "HLsimil": 7522,
      "HLdouble": 7523,
      "HLãĥīãĥ©ãĥŀ": 7524,
      "HLrequire": 7525,
      "çĮ®": 7526,
      "HLèŀįè³ĩ": 7527,
      "Class": 7528,
      "pre": 7529,
      "HLml": 7530,
      "HLãģĦãģ¯": 7531,
      "HLå¤«": 7532,
      "åĲĽ": 7533,
      "HLãĤıãģĭãĤĭ": 7534,
      "HLæĺŃ": 7535,
      "close": 7536,
      "HLæ£®": 7537,
      "4879": 7538,
      "HLèĤī": 7539,
      "HLæ¼«": 7540,
      "âĹĨ": 7541,
      "HLprofessional": 7542,
      "HLcreate": 7543,
      "HLåĴĮæŃĮ": 7544,
      "iya": 7545,
      "lin": 7546,
      "rim": 7547,
      "HLdone": 7548,
      "outer": 7549,
      "ãģŁãģĹ": 7550,
      "HLãģĵãĤį": 7551,
      "ored": 7552,
      "ãĥĵãĥ¼": 7553,
      "HLéĩįåºĨ": 7554,
      "HLãĤĤãĤīãģĨ": 7555,
      "HLãģµãģĨ": 7556,
      ":-": 7557,
      "Che": 7558,
      "lication": 7559,
      "Â»": 7560,
      "HLlit": 7561,
      "HLãģĹãģĭãģ£": 7562,
      "HLstre": 7563,
      "ãĥĥãĥĦ": 7564,
      "illa": 7565,
      "HLãģĭãĤĭ": 7566,
      "HLåĩºåĲĪ": 7567,
      "ï¾Ŀ": 7568,
      "æ±ī": 7569,
      "ãĥģãĥ³": 7570,
      "HLæ±º": 7571,
      "HLoption": 7572,
      "ãĥ¥ãĤ¢ãĥ«": 7573,
      "âĺĨ": 7574,
      "HLtechnology": 7575,
      "HLãģªãģıãģªãģ£": 7576,
      "HLæĤ£èĢħ": 7577,
      "HLéĺħè¯»": 7578,
      "!:": 7579,
      "AS": 7580,
      "ouch": 7581,
      "HLbed": 7582,
      "ï¼į": 7583,
      "âĢ»": 7584,
      "osp": 7585,
      "ably": 7586,
      "HLtrouv": 7587,
      "HLshop": 7588,
      "HLåĬªåĬĽ": 7589,
      "HLéĤĦ": 7590,
      "HLposition": 7591,
      "HLåīįè¨ĺ": 7592,
      "HLsolution": 7593,
      "ï¼ĵï¼Ĳ": 7594,
      "HLéĹ¨": 7595,
      "HLå£°": 7596,
      "HLæł¼å®ī": 7597,
      "HLcouleur": 7598,
      "HLåĺī": 7599,
      "10394879": 7600,
      "103948792546": 7601,
      "bourg": 7602,
      "atre": 7603,
      "HLä¸ª": 7604,
      "HLvu": 7605,
      "HLåŃĹ": 7606,
      "è§ī": 7607,
      "obil": 7608,
      "ãĥ»:": 7609,
      "HLæıĲæ¡Ī": 7610,
      "HLjapan": 7611,
      "HLè´µ": 7612,
      "HLflor": 7613,
      "HLæĦıèŃĺ": 7614,
      "æĻ´": 7615,
      "HLterre": 7616,
      "å²¸": 7617,
      "HLãģĶãģ¨": 7618,
      "HLcommentaires": 7619,
      "HLtitre": 7620,
      "HLsystÃ¨me": 7621,
      "HLãģįãĤĮãģĦ": 7622,
      "HLåĴĮæŃĮå±±": 7623,
      "ãĤ¥": 7624,
      "HLaur": 7625,
      "HLå®ĩ": 7626,
      "HLproch": 7627,
      "HLãĤ³ãĤ¹": 7628,
      "HLappel": 7629,
      "HLæıĲåĩº": 7630,
      "HLè¡Įåĭķ": 7631,
      "HLmaterial": 7632,
      "HLtouch": 7633,
      "HLç¢ºçİĩ": 7634,
      "HLä¹ĭåĲİ": 7635,
      "HLåł±åĳĬ": 7636,
      "HLhappy": 7637,
      "ãĥ¼ãĥįãĥĥãĥĪ": 7638,
      "HLé²": 7639,
      "HLmind": 7640,
      "HLobl": 7641,
      "HLgetting": 7642,
      "HLä¸ĢåĪĩ": 7643,
      "æīĺ": 7644,
      "éĻ½": 7645,
      "HLæĹ¥å¸¸": 7646,
      "HLãģĿãģ®ãģ¾ãģ¾": 7647,
      "HLcanada": 7648,
      "è¡£": 7649,
      "HLç¾İäºº": 7650,
      "HLsaf": 7651,
      "çľ¼": 7652,
      "HLaccueil": 7653,
      "share": 7654,
      "HLè¨ĺè¼ī": 7655,
      "HLç©į": 7656,
      "©åŃĲ": 7657,
      "HLenough": 7658,
      "HLèĩªå®ħ": 7659,
      "HLauthor": 7660,
      "HLintÃ©r": 7661,
      "HLå¼ķçĶ¨": 7662,
      "HLcountry": 7663,
      "ÑĮ": 7664,
      "HLden": 7665,
      "HLç¹": 7666,
      "oule": 7667,
      "HLthought": 7668,
      "HLä¸°": 7669,
      "HLfle": 7670,
      "HLru": 7671,
      "ãĥ«ãĤ¤ãĥ´ãĤ£ãĥĪ": 7672,
      "101": 7673,
      "åĲī": 7674,
      "HLsud": 7675,
      "æĶ¹": 7676,
      "HLãĤ¯ãĥ©ãĥĸ": 7677,
      "HLè°·": 7678,
      "HLchambres": 7679,
      "HLè«ĭ": 7680,
      "HLmÃ©t": 7681,
      "HLhal": 7682,
      "acity": 7683,
      "åĲ¦": 7684,
      "ivitÃ©": 7685,
      "Ã©rer": 7686,
      "HLä¹¦": 7687,
      "HLarm": 7688,
      "udes": 7689,
      "HLæ£Ģ": 7690,
      "HLãĥľãĥĩãĤ£": 7691,
      "HLcommunication": 7692,
      "HLæ±Łèĭı": 7693,
      "HLmedia": 7694,
      "èĮ¶": 7695,
      "HLãģļãģ£ãģ¨": 7696,
      "HLpouvoir": 7697,
      "HLéģ¸æīĭ": 7698,
      "HLãĥģãĥ§ãĤ³": 7699,
      "HLfurther": 7700,
      "UAN": 7701,
      "iod": 7702,
      "enu": 7703,
      "HLdist": 7704,
      "HLmakes": 7705,
      "HLfocus": 7706,
      "1027": 7707,
      "ivent": 7708,
      "126": 7709,
      "HLãģıãĤĵ": 7710,
      "1702": 7711,
      "HLçĽ¸å½ĵ": 7712,
      "HLçµ±": 7713,
      "HLæĶ¾éĢģ": 7714,
      "HLçµĤäºĨ": 7715,
      "HLãĤ«ãĤ¦ãĥ³ãĤ»ãĥ©ãĥ¼": 7716,
      "ãĥ³ãĥļãĥ¼ãĥ³": 7717,
      "HLcompanies": 7718,
      "3000": 7719,
      "ielle": 7720,
      "HLãģ¹": 7721,
      "HLtell": 7722,
      "onom": 7723,
      "inform": 7724,
      "HLland": 7725,
      "HLé¸": 7726,
      "HLhours": 7727,
      "ãĤ¹ãĤ³": 7728,
      "ãĥªãĥ³": 7729,
      "éĻµ": 7730,
      "èĢģ": 7731,
      "HLdÃ©cl": 7732,
      "HLãĥ¡ãĥ³ãĥĲãĥ¼": 7733,
      "HLæ°Ķ": 7734,
      "HLå¯¿": 7735,
      "HLå°ıçī©": 7736,
      "èŃ¦": 7737,
      "HLè¾ĵ": 7738,
      "HLtransm": 7739,
      "HLpropose": 7740,
      "HLåĵªéĩĮ": 7741,
      "HLsociÃ©tÃ©": 7742,
      "ategory": 7743,
      "HLãĥĸãĥ¬ãĥ¼ãĤŃ": 7744,
      "HLåŁ¹è®Ń": 7745,
      "HLåĤµåĭĻ": 7746,
      "éĨ": 7747,
      "HLpiÃ¨": 7748,
      "HLcÃ´t": 7749,
      "HLol": 7750,
      "raison": 7751,
      "HLplate": 7752,
      "çĽĺ": 7753,
      "HLclick": 7754,
      "HLnotamment": 7755,
      "HLçĻ¼": 7756,
      "ãĢĳãĢĲ:": 7757,
      "HLæĦıè¦ĭ": 7758,
      "HLãĥ¤ãĥŀ": 7759,
      "HLeverything": 7760,
      "HLãĤĦãģĻãģı": 7761,
      "æ¥ļ": 7762,
      "HLãĤ¯ãĥ¬ãĤ¸ãĥĥãĥĪãĤ«ãĥ¼ãĥī": 7763,
      "ãĤĨãĤĭ": 7764,
      "],[": 7765,
      "HLéĺ²å¾¡åĬĽ": 7766,
      "UO": 7767,
      "mx": 7768,
      "mark": 7769,
      "nc": 7770,
      "HLdepl": 7771,
      "HLãģªãĤĮ": 7772,
      "HLparents": 7773,
      "HLconv": 7774,
      "HLdÃ©but": 7775,
      "HLæĽ²": 7776,
      "HLãĥįãĥĥãĤ¯": 7777,
      "HLç¬¬ä¸ī": 7778,
      "èįĲ": 7779,
      "ledge": 7780,
      "HLdroits": 7781,
      "HLãģ¥ãģĦ": 7782,
      "HLdidn": 7783,
      "HLcadre": 7784,
      "HLãĤªãĥķãĤ£ãĤ¹": 7785,
      ",#": 7786,
      "ham": 7787,
      "tc": 7788,
      "HLpages": 7789,
      "HLå¤§åŀĭ": 7790,
      "1600": 7791,
      "ãĤ¸ãĥĬãĥ«": 7792,
      "HLmarque": 7793,
      "HLçµĲå±Ģ": 7794,
      "HLå®¢æľį": 7795,
      "HLãĥķãĥ¬ãĥ³ãĥī": 7796,
      "HLæ¡ĪåĨħ": 7797,
      "HLåĪ©çĽĬ": 7798,
      "HLãĤ·ãĥ«ãĥĲãĥ¼": 7799,
      "HLbesoin": 7800,
      "Name": 7801,
      "mar": 7802,
      "èĴ": 7803,
      "HLtant": 7804,
      "HLdog": 7805,
      "HLpense": 7806,
      "HLmond": 7807,
      "HLbill": 7808,
      "iding": 7809,
      "ãĥ³ãĥĿ": 7810,
      "HLãģŁãģĦ": 7811,
      "å¾Ħ": 7812,
      "HLãĥ¬ãĥĥãĥī": 7813,
      "HLç»¿": 7814,
      "HLfinal": 7815,
      "æı¡": 7816,
      "HLè£ģ": 7817,
      "HLè¿Ľåħ¥": 7818,
      "æ¡¥": 7819,
      "asseur": 7820,
      "HLoffre": 7821,
      "HLmaster": 7822,
      "HLpotent": 7823,
      "IT": 7824,
      "ka": 7825,
      "kit": 7826,
      "}#": 7827,
      "HLsle": 7828,
      "HLlic": 7829,
      "HLlire": 7830,
      "HLåı¬": 7831,
      "HLçĶĺ": 7832,
      "HLseason": 7833,
      "HLãĤµãĥ©": 7834,
      "HLãĥ©ãĤ°": 7835,
      "HLãĤĦãĤģ": 7836,
      "HLãģ©ãģ¡ãĤī": 7837,
      "HLcontent": 7838,
      "HLamazon": 7839,
      "HLãĥķãĥªãĥ¼": 7840,
      "return": 7841,
      "HLçĹĩ": 7842,
      "HLçİĭåŃĲ": 7843,
      "HLmesure": 7844,
      "HLåĮ»éĻ¢": 7845,
      "HLreprÃ©s": 7846,
      "HLdiscuss": 7847,
      "çĩ¥": 7848,
      "HLimprove": 7849,
      "sub": 7850,
      "HLom": 7851,
      "HLsound": 7852,
      "HLcut": 7853,
      "anch": 7854,
      "HLrock": 7855,
      "HLå¤§ä¸Ī": 7856,
      "ulaire": 7857,
      "HLåĽ°": 7858,
      "HLexpect": 7859,
      "HLæ¸¯": 7860,
      "æ¥ŃèĢħ": 7861,
      "å¤§åŃ¦": 7862,
      "Ã©tait": 7863,
      "HLãĤ¹ãĤ¿ãĥ¼ãĥĪ": 7864,
      "HLåĪ¶ä½ľ": 7865,
      "HLæķ°åŃĹ": 7866,
      "HLéłŃ": 7867,
      "HLparticular": 7868,
      "HLå²¡": 7869,
      "HLç·¨éĽĨ": 7870,
      "di": 7871,
      "HLfire": 7872,
      "iday": 7873,
      "ively": 7874,
      "HLprim": 7875,
      "HLselect": 7876,
      "iquÃ©": 7877,
      "ipe": 7878,
      "ãĥĭãĥ¥ãĥ¼": 7879,
      "HLç´Ķ": 7880,
      "HLäººå¦»": 7881,
      "HLèĭĹ": 7882,
      "HLãģ»ãģ¼": 7883,
      "HLãĤŃãĥ£ãĥ³ãĥļãĥ¼ãĥ³": 7884,
      "venir": 7885,
      "HLãģĽãģĦ": 7886,
      "HLmonth": 7887,
      "èĩŃ": 7888,
      "ãĥļãĥ¼ãĤ¸": 7889,
      "HLcause": 7890,
      "HLbelow": 7891,
      "âĤ¬:": 7892,
      "HLæ§ĭæĪĲ": 7893,
      "column": 7894,
      "HLå¤§ä¸Īå¤«": 7895,
      "By": 7896,
      "Com": 7897,
      "HLdam": 7898,
      "ãĤ¯ãĤ¿ãĥ¼": 7899,
      "HLãģĵãģ£": 7900,
      "åºı": 7901,
      "å¸³": 7902,
      "åį°": 7903,
      "HLå¼Ĭ": 7904,
      "HLãĥªãĥªãĥ¼ãĤ¹": 7905,
      "HLéģł": 7906,
      "ï¼ĳï¼ĺ": 7907,
      "èīº": 7908,
      "ãĤ°ãĥ©": 7909,
      "heim": 7910,
      "HLè¡ĮæĶ¿": 7911,
      "HLthank": 7912,
      "HLèį·": 7913,
      "HLè±ª": 7914,
      "Element": 7915,
      "ID": 7916,
      "HLãģĸ": 7917,
      "orter": 7918,
      "HLnuit": 7919,
      "HLequip": 7920,
      "HLå¥ĩ": 7921,
      "å¾Ģ": 7922,
      "255": 7923,
      "HLãĤ¨ãĥ³ãĤ¸": 7924,
      "HLãģ¤ãģ¾ãĤĬ": 7925,
      "HLãĤ·ãĥ³ãĤ°ãĥ«": 7926,
      "HLcolle": 7927,
      "HLsmart": 7928,
      "çĪ±": 7929,
      "ç¬ĳ": 7930,
      "tout": 7931,
      "ero": 7932,
      "HLcred": 7933,
      "child": 7934,
      "HLchat": 7935,
      "HLçĽĽ": 7936,
      "ãĤ¿ãĥªãĤ¢": 7937,
      "HLéĽ»åĬĽ": 7938,
      "HLmembers": 7939,
      "HLpolitique": 7940,
      "HLseulement": 7941,
      "HLÎ": 7942,
      "HLï¾": 7943,
      "iner": 7944,
      "HLpict": 7945,
      "ãģ£ãģį": 7946,
      "charge": 7947,
      "HLquant": 7948,
      "HLprÃ©v": 7949,
      "outube": 7950,
      "HLsugg": 7951,
      "HLãģĬãĤĤ": 7952,
      "HLactually": 7953,
      "HLèĪŀ": 7954,
      "ãĥ¼ãĥĨãĥ³": 7955,
      "HLæĸ½å·¥": 7956,
      "çĹĩ": 7957,
      "HLlearning": 7958,
      "HLconstruction": 7959,
      "¾åĲĳ": 7960,
      "enf": 7961,
      "HLtim": 7962,
      "HLsole": 7963,
      "ãĥĹãĥŃ": 7964,
      "auto": 7965,
      "æİĴ": 7966,
      "HLä¿Ŀéļľ": 7967,
      "ãĥĩãĤ£ãĤ¢": 7968,
      "æıĲ": 7969,
      "HLmonths": 7970,
      "HLconsommation": 7971,
      "HLãĤ¢ãĥĭãĥ¡": 7972,
      "HLåĪ«": 7973,
      "æĿı": 7974,
      "aining": 7975,
      "HLãĥĨãĥ¼ãĥŀ": 7976,
      "weet": 7977,
      "HLæĻ®æ®µ": 7978,
      "HLè³ĩæł¼": 7979,
      "HLèĤ²æ¯Ľ": 7980,
      "HLbleu": 7981,
      "HLcopyright": 7982,
      "41286": 7983,
      "102741286": 7984,
      "hist": 7985,
      "ąĆ": 7986,
      "ãĤħ": 7987,
      "HLtre": 7988,
      "itaire": 7989,
      "HLbag": 7990,
      "HLnice": 7991,
      "HLvale": 7992,
      "irm": 7993,
      "HLãģ©ãĤĤ": 7994,
      "article": 7995,
      "HLè²¬": 7996,
      "HLãĤ·ãĥ§ãĥĥãĥĶãĥ³ãĤ°": 7997,
      "HLå±ķç¤º": 7998,
      "åĦª": 7999,
      "HLãģ°ãĤĮ": 8000,
      "ta": 8001,
      "ether": 8002,
      "HLçĶ±": 8003,
      "HLstory": 8004,
      "åľ³": 8005,
      "HLãĥĲãĤ¤ãĥĪ": 8006,
      "ãĤ¸ãĤª": 8007,
      "HLç§¯": 8008,
      "ache": 8009,
      "HLè¯ķ": 8010,
      "HLçī¹èī²": 8011,
      "HLè¡¨çı¾": 8012,
      "HLsolutions": 8013,
      "HLæİ¨èįĲ": 8014,
      "ãĥ§ãĥ³": 8015,
      "ufact": 8016,
      "HLãĥĲãĥ©ãĥ³ãĤ¹": 8017,
      "§ãģ«": 8018,
      "HLnord": 8019,
      "ases": 8020,
      "ãģĻãĤĭ": 8021,
      "obile": 8022,
      "indre": 8023,
      "HLãģĻãģ§ãģ«": 8024,
      "HLbring": 8025,
      "HLåĽŀçŃĶ": 8026,
      "é¤Ĭ": 8027,
      "ãĥ¼ãĥĳãĥ¼ãĤ³": 8028,
      "HLãĤ¯ãĥªãĥĭãĥĥãĤ¯": 8029,
      "HLæ·±åľ³": 8030,
      "HLagainst": 8031,
      "HLå¥¥è¡Į": 8032,
      "HLç»Ħç»ĩ": 8033,
      "HLenergy": 8034,
      "HLãĤ¢ãĤ¯ãĤ»ãĤµãĥªãĥ¼": 8035,
      "HLband": 8036,
      "HLhope": 8037,
      "uration": 8038,
      "HLvip": 8039,
      "HLå®Ī": 8040,
      "oses": 8041,
      "ãĥ³ãĥŃ": 8042,
      "HLä¸Ģå¹´": 8043,
      "æ³Ĭ": 8044,
      "HLexpress": 8045,
      "ãĥĬãĤ¤ãĥĪ": 8046,
      "HLä½ľçĶ¨": 8047,
      "HLcommission": 8048,
      "HLè´Ń": 8049,
      "HLãģłãģĮ": 8050,
      "HLçĽ®æĮĩ": 8051,
      "HLvoiture": 8052,
      "widget": 8053,
      "ibility": 8054,
      "HLèĪªç©º": 8055,
      "detail": 8056,
      "*:": 8057,
      "ko": 8058,
      "Â²": 8059,
      "çł´": 8060,
      "HLsiÃ¨": 8061,
      "HLéį": 8062,
      "HLbure": 8063,
      "omme": 8064,
      "unch": 8065,
      "charger": 8066,
      "éģĩ": 8067,
      "HLéĩĳåĢŁ": 8068,
      "HLãĥıãĥ¡": 8069,
      "HLtravel": 8070,
      "HLmodel": 8071,
      "HLeffort": 8072,
      "HLprÃ©sident": 8073,
      "HLmesures": 8074,
      "çĥĪ": 8075,
      "HLenvironment": 8076,
      "Map": 8077,
      "xim": 8078,
      "æ¤į": 8079,
      "HLpie": 8080,
      "HLmad": 8081,
      "HLdeal": 8082,
      "HLnorth": 8083,
      "HLgau": 8084,
      "ãĥ³ãĥķ": 8085,
      "HLcomes": 8086,
      "å·´": 8087,
      "HLæķ£": 8088,
      "HLçĶŁå¾Ĵ": 8089,
      "HLjack": 8090,
      "HLãģĦãģŁãģĦ": 8091,
      "HLrelations": 8092,
      "HLpolic": 8093,
      "HLè®°å½ķ": 8094,
      "HLæ´ĹéĿ¢": 8095,
      "ãĢı:": 8096,
      "HLãģ«ãģıãģĦ": 8097,
      "yst": 8098,
      "HLsais": 8099,
      "HLword": 8100,
      "HLwonder": 8101,
      "elt": 8102,
      "HLpris": 8103,
      "HLappr": 8104,
      "HLèµ¢": 8105,
      "HLÃ©conom": 8106,
      "HLãĥ¬ãĥĿãĥ¼ãĥĪ": 8107,
      "HLå°ıæĹ¶": 8108,
      "HLãĥĨãĤ¯": 8109,
      "HLåĲįåı¤": 8110,
      "HLãĥ¢ãĥİ": 8111,
      "HLãĥ¯ãĤŃ": 8112,
      "åģ¥": 8113,
      "çĤİ": 8114,
      "HLéĬĢåº§": 8115,
      "HLä»ĭç»į": 8116,
      "HLåħ¶ä¸Ń": 8117,
      "HLacheter": 8118,
      "HLrÃ©gion": 8119,
      "HLé¢Ĩå¯¼": 8120,
      "HLbuilding": 8121,
      "HLåĲįåı¤å±ĭ": 8122,
      "key": 8123,
      "çħ": 8124,
      "HLdat": 8125,
      "HLãģĦãĤĪ": 8126,
      "ãĥ³ãĥ¬": 8127,
      "HLjul": 8128,
      "HLalready": 8129,
      "HLãģıãĤīãģĦ": 8130,
      "HLãĥĳãĥ³ãĥĦ": 8131,
      "default": 8132,
      "æ´ŀ": 8133,
      "HLimages": 8134,
      "HLæĪĲç«ĭ": 8135,
      "uble": 8136,
      "HLãĥľãĥ¼ãĥ«": 8137,
      "HLãĥľãĥ¼ãĥī": 8138,
      "HLãģ¡ãĤĥãĤĵãģ¨": 8139,
      "HLåī²": 8140,
      "HLç¶ļ": 8141,
      "HLeuropÃ©": 8142,
      "HLdiy": 8143,
      "HLbeautiful": 8144,
      "HLèĽĭèĽĭ": 8145,
      "BI": 8146,
      "ius": 8147,
      "esent": 8148,
      "HLsays": 8149,
      "HLhost": 8150,
      "HLhold": 8151,
      "HLeconom": 8152,
      "åĪ·": 8153,
      "HLå¤§å¸Ī": 8154,
      "HLcomments": 8155,
      "HLtrip": 8156,
      "istiques": 8157,
      "HLattr": 8158,
      "ãĤ¹ãĥĪãĥ©ãĥ³": 8159,
      "HLåŃ¦éĻ¢": 8160,
      "HLéĤ®": 8161,
      "HLfollowing": 8162,
      "HLéĶĢ": 8163,
      "HLãĤªãĥªãĤ¸ãĥĬãĥ«": 8164,
      "HLåŃ£ç¯Ģ": 8165,
      "HLåªĴä½ĵ": 8166,
      "nel": 8167,
      "HLãĤº": 8168,
      "HLlin": 8169,
      "Ã©gr": 8170,
      "HLgirl": 8171,
      "ãĥ³ãĤ«": 8172,
      "åºĵ": 8173,
      "å¥ı": 8174,
      "HLjeux": 8175,
      "HLåıĳçĶŁ": 8176,
      "ensive": 8177,
      "HLçĶ¨æĪ·": 8178,
      "HLæĦıå¤ĸ": 8179,
      "HLfamille": 8180,
      "HLfacile": 8181,
      "ãĤ¤ãĥ¤ãĥ¼": 8182,
      "HLcontinue": 8183,
      "HLä¹¾çĩ¥": 8184,
      "HLdav": 8185,
      "HLlond": 8186,
      "HLrac": 8187,
      "HLåŃ©åŃĲ": 8188,
      "çķĻ": 8189,
      "HLouvert": 8190,
      "HLç§Ł": 8191,
      "HLcompet": 8192,
      "ensions": 8193,
      "HLæĹ¶ä»£": 8194,
      "HLrecord": 8195,
      "HLãģ¡ãĤĥãģ£": 8196,
      "HLãĤ³ãĥŁãĥ¥": 8197,
      "HLéº»": 8198,
      "HLæĺ¾ç¤º": 8199,
      "dy": 8200,
      "oid": 8201,
      "HLic": 8202,
      "ãĥĴ": 8203,
      "HLmart": 8204,
      "ãĥªãĤ¹ãĥĪ": 8205,
      "ãĥªãĤª": 8206,
      "HLplat": 8207,
      "HLãĤ³ãĥ¬": 8208,
      "HLtrouve": 8209,
      "å¿ħ": 8210,
      "HLæĪĸ": 8211,
      "HLãĥ¬ãĤ¶ãĥ¼": 8212,
      "HLclasse": 8213,
      "HLmeans": 8214,
      "HLå®īè£ħ": 8215,
      "HLmatch": 8216,
      "HLçĶ·å¥³": 8217,
      "azing": 8218,
      "HLé£Łåĵģ": 8219,
      "HLåħ³æ³¨": 8220,
      "âĹĭ": 8221,
      "èĭ±": 8222,
      "HLèĩ³": 8223,
      "HLä»ĺå±ŀ": 8224,
      "HLæĲŃè¼ī": 8225,
      "HLapril": 8226,
      "HLadapt": 8227,
      "HLè«ĭæ±Ĥ": 8228,
      "HLmention": 8229,
      "HLray": 8230,
      "idge": 8231,
      "HLä¸Ģèµ·": 8232,
      "HLdue": 8233,
      "HLäººåĳĺ": 8234,
      "HLãĤ¿ãĤ¤ãĥĪ": 8235,
      "HLçĶŁçī©": 8236,
      "HLãģ¡ãģª": 8237,
      "HLæıĲåįĩ": 8238,
      "HLçŁ¢": 8239,
      "é¢Ŀ": 8240,
      "æĥĳ": 8241,
      "HLç¥ŀå¥Ī": 8242,
      "HLconfig": 8243,
      "HLå¾®ä¿¡": 8244,
      "ï¼ı:": 8245,
      "HLcouleurs": 8246,
      "HLsantÃ©": 8247,
      "PC": 8248,
      "qx": 8249,
      "rad": 8250,
      "HLelles": 8251,
      "HLé¼": 8252,
      "ãĥ¼ãĥķãĤ": 8253,
      "ãĤ¹ãĥŀ": 8254,
      "HLinfl": 8255,
      "HLå®¤": 8256,
      "HLstars": 8257,
      "HLãĤ«ãĥĥãĥĪ": 8258,
      "å¥Ĺ": 8259,
      "HLãĤ¤ãĤ¨": 8260,
      "HLãĤĦãĤī": 8261,
      "HLãĥĩãĤ¸": 8262,
      "HLè¯Ń": 8263,
      "HLçĻ»éĻĨ": 8264,
      "HLè¿ĻéĩĮ": 8265,
      "HLconsult": 8266,
      "HLRÃ©p": 8267,
      "HLåĭķä½ľ": 8268,
      "ãĥ³ãĥĳãĤ¯ãĥĪ": 8269,
      "HLæĿİèį£": 8270,
      "HLèĩªåĭķè»Ĭ": 8271,
      "ãĥ³ãĥĩãĤ£": 8272,
      "HLãĤ¤ãĥ³ãĤ¿ãĥ¼ãĥįãĥĥãĥĪ": 8273,
      "HLãĥ«ãĤ¤ãĥ´ãĤ£ãĥĪãĥ³": 8274,
      "HLãģ¼": 8275,
      "ãĥ«ãĥ¡": 8276,
      "HLå®ľ": 8277,
      "HLåħĭ": 8278,
      "HLplac": 8279,
      "ãĤ¤ãĥĳ": 8280,
      "bli": 8281,
      "HLãĤ«ãĥĨ": 8282,
      "itez": 8283,
      "HLçĦ¶": 8284,
      "HLåĲĪæł¼": 8285,
      "HLcasino": 8286,
      "HLæİ¨è¿Ľ": 8287,
      "HLinformations": 8288,
      "HLinclude": 8289,
      "ãĥĥãĥĶãĥ¼": 8290,
      "HLlorsque": 8291,
      "HLéģĵè·¯": 8292,
      "HLentreprises": 8293,
      "HLå´": 8294,
      "HLpick": 8295,
      "erne": 8296,
      "HLmp": 8297,
      "HLãģĵãģł": 8298,
      "irt": 8299,
      "HLintro": 8300,
      "HLAprÃ¨s": 8301,
      "HLmillion": 8302,
      "HLãģ¶ãĤĬ": 8303,
      "HLãģĬãģ£ãģ±ãģĦ": 8304,
      "HLgestion": 8305,
      "HLai": 8306,
      "HLliste": 8307,
      "ï¼¬": 8308,
      "HLå·¡": 8309,
      "HLãĥ¡ãĥĭãĥ¥ãĥ¼": 8310,
      "HLä¼ļè®®": 8311,
      "354": 8312,
      "HLçı¾åł´": 8313,
      "HLç²¾åĬĽ": 8314,
      "HLmethod": 8315,
      "HLå½±åĵį": 8316,
      "HLæ®µ": 8317,
      "HLhappen": 8318,
      "HLäºĴèģĶ": 8319,
      "ao": 8320,
      "aja": 8321,
      "çŁ": 8322,
      "è»": 8323,
      "HLæ¿": 8324,
      "isf": 8325,
      "HLãĤ¹ãĥ¼ãĥĹ": 8326,
      "æĹł": 8327,
      "HLãģĭãģĭãĤĬ": 8328,
      "HLhair": 8329,
      "HLè²´": 8330,
      "2003": 8331,
      "HLä»¥æĿ¥": 8332,
      "HLãĥĽãĤ¤ãĥ¼ãĥ«": 8333,
      "HLå»ºç¯ī": 8334,
      "HLçŁ¥èŃĺ": 8335,
      "HLçľĭåĪ°": 8336,
      "HLçĶ»éĿ¢": 8337,
      "HLjoin": 8338,
      "HLoffres": 8339,
      "ç¡®": 8340,
      "HLexample": 8341,
      "HLãģĻãģĶãģĦ": 8342,
      "HLmaintenant": 8343,
      "HLsouvent": 8344,
      "HLglobal": 8345,
      "HLcandid": 8346,
      "ew": 8347,
      "yt": 8348,
      "HLfest": 8349,
      "ãĥ³ãĥľ": 8350,
      "HLforme": 8351,
      "HLbecome": 8352,
      "HLfrais": 8353,
      "140": 8354,
      "active": 8355,
      "HLadministr": 8356,
      "ãĤ±ãĥ¼ãĤ·ãĥ§ãĥ³": 8357,
      "HLåħ¥åĬĽ": 8358,
      "HLãģ¡ãĤĥãģĨ": 8359,
      "HLannÃ©e": 8360,
      "HLdevant": 8361,
      "HLèĢģçīĮ": 8362,
      "çĦ¡": 8363,
      "AL": 8364,
      "HLÃ": 8365,
      "HLciv": 8366,
      "ï¼Ľ": 8367,
      "ãĥ«ãĥī": 8368,
      "HLquart": 8369,
      "ä½³": 8370,
      "HLÃ©d": 8371,
      "125": 8372,
      "HLä¸įåĲĮ": 8373,
      "HLç´°": 8374,
      "çİī": 8375,
      "ç´¢": 8376,
      "HLè¦ĸ": 8377,
      "ï¼ĳï¼ĳ": 8378,
      "HLç¾İè¡ĵ": 8379,
      "HLãĤ´ãĥ«ãĥķ": 8380,
      "HLorganis": 8381,
      "èĸ¦": 8382,
      "HLè²¬ä»»": 8383,
      ":.": 8384,
      "Web": 8385,
      "bt": 8386,
      "HLtalk": 8387,
      "HLci": 8388,
      "edi": 8389,
      "HLaltern": 8390,
      "HLç»¼åĲĪ": 8391,
      "autre": 8392,
      "HLçĶµæ¸¸": 8393,
      "HLåħ¥åı£": 8394,
      "HLtechniques": 8395,
      "HLçĸĳ": 8396,
      "HLä½ķåº¦": 8397,
      "HLmarchÃ©": 8398,
      "HLsingle": 8399,
      "HLæĿİèį£èŀį": 8400,
      "*,": 8401,
      "³ĸ": 8402,
      "HLing": 8403,
      "enir": 8404,
      "HLdial": 8405,
      "roid": 8406,
      "HLåħĲ": 8407,
      "HLchance": 8408,
      "å¸ģ": 8409,
      "HLåĩºçİ°": 8410,
      "æŀģ": 8411,
      "HLheure": 8412,
      "é¢Ĩ": 8413,
      "HLï½¸": 8414,
      "éļ¾": 8415,
      "HLlivraison": 8416,
      "HLç¶Ń": 8417,
      "HLãĤ¯ãĥ©ãĤ¹": 8418,
      "HLsommes": 8419,
      "SE": 8420,
      "gn": 8421,
      "¾æİ¥": 8422,
      "HLdistance": 8423,
      "isions": 8424,
      "HLment": 8425,
      "HLfant": 8426,
      "ãĥ¼ãĥĻ": 8427,
      "tems": 8428,
      "HLãģĹãģŁãĤī": 8429,
      "ifique": 8430,
      "iller": 8431,
      "ãĥĭãĤ¹": 8432,
      "HLæıĲæ¬¾": 8433,
      "ãĥ¼ãĤ¸ãĥ¥": 8434,
      "HLæĪĲéķ·": 8435,
      "HLprevious": 8436,
      "HLå½ĵæĻĤ": 8437,
      "HLèģĸ": 8438,
      "HLè¿Ķåĵģ": 8439,
      "HLeveryone": 8440,
      "HLçľĭèŃ·": 8441,
      "HLideas": 8442,
      "HLè¿ĺæľī": 8443,
      "HLçĨŁ": 8444,
      "HLæĻºèĥ½": 8445,
      "HLãģ£ãģ½": 8446,
      "546": 8447,
      "word": 8448,
      "ãģ·": 8449,
      "HLdoss": 8450,
      "HLsize": 8451,
      "HLrose": 8452,
      "HLå¤®": 8453,
      "HLäº²": 8454,
      "ä¹Ŀ": 8455,
      "HLä¸Ńæĸĩ": 8456,
      "HLå·®": 8457,
      "HLãĥ¬ãĤ¹": 8458,
      "æ´¾": 8459,
      "ãĤµãĥ¼": 8460,
      "HLå½ĵæĹ¥": 8461,
      "ãĢĮ:": 8462,
      "HLåĽŀè¡Ģ": 8463,
      "HLéĽĨä¸Ń": 8464,
      "oods": 8465,
      "»çĸ": 8466,
      "HLcorres": 8467,
      "jetpack": 8468,
      "HLski": 8469,
      "HLãģ¤ãģĳãĤĭ": 8470,
      "HLjuste": 8471,
      "HLfriends": 8472,
      "HLdifficult": 8473,
      "HLsummer": 8474,
      "RI": 8475,
      "bar": 8476,
      "cz": 8477,
      "ä¸½": 8478,
      "HLãģĤãģŁãĤĬ": 8479,
      "imm": 8480,
      "auv": 8481,
      "å±¤": 8482,
      "HLæľĢä½İ": 8483,
      "HLãĥ¬ãĤ¹ãĥĪãĥ©ãĥ³": 8484,
      "HLacqu": 8485,
      "HLoffers": 8486,
      "HLæĢİä¹Īæł·": 8487,
      "HLzone": 8488,
      "HLconcasseur": 8489,
      "HLãĥģãĤ§ãĤ¢": 8490,
      "æ¢ħ": 8491,
      "çĨ±": 8492,
      "HLcommercial": 8493,
      "HLãĤªãĥ¼ãĥĹãĥ³": 8494,
      "HLç¥ŀå¥Īå·Ŀ": 8495,
      "fic": 8496,
      "tat": 8497,
      "HLI": 8498,
      "HLæ¤į": 8499,
      "HLlik": 8500,
      "HLé§": 8501,
      "HLthough": 8502,
      "quer": 8503,
      "HLåħ´": 8504,
      "HLåĲ´": 8505,
      "search": 8506,
      "HLãĤĪãģĭãģ£": 8507,
      "è¯Ħ": 8508,
      "HLparti": 8509,
      "HLimage": 8510,
      "HLãĥıãĥ³ãĥī": 8511,
      "HLé£²": 8512,
      "HLè¯ģ": 8513,
      "HLçĶµå½±": 8514,
      "HLstrong": 8515,
      "HLèĥ½å¤Ł": 8516,
      "HLå¤§éĺªåºľ": 8517,
      "HLå½¢æĪĲ": 8518,
      "HLè®¾å¤ĩ": 8519,
      "HLanalys": 8520,
      "HLç¯Ģ": 8521,
      "HLæ¨Ļæºĸ": 8522,
      "ych": 8523,
      "âĳ": 8524,
      "HLæ©": 8525,
      "HLtun": 8526,
      "HLequ": 8527,
      "·ãĥ£": 8528,
      "open": 8529,
      "HLåıĳçİ°": 8530,
      "HLæı´": 8531,
      "HLmanufact": 8532,
      "HLçİ¯å¢ĥ": 8533,
      "ãģ¿ãģ«": 8534,
      "HLãĥĻãĥ¼ãĤ¹": 8535,
      "HLè¨ŃåĤĻ": 8536,
      "HLpasser": 8537,
      "HLçĸ«": 8538,
      "HLåĤ¾åĲĳ": 8539,
      "HLbelg": 8540,
      "HLoriginal": 8541,
      "HLindividual": 8542,
      "path": 8543,
      "HLprior": 8544,
      "ãĤ¤ãĥŀ": 8545,
      "å¥ĩ": 8546,
      "åİĤ": 8547,
      "HLacross": 8548,
      "ãĤ¨ãĥªãĥ¼": 8549,
      "HLäº¤æĺĵ": 8550,
      "HLï½¾": 8551,
      "è·¡": 8552,
      "è©ķ": 8553,
      "çĸĳ": 8554,
      "HLãĤ·ãĤ¢ãĤ¿ãĥ¼": 8555,
      "ding": 8556,
      "HLÑģ": 8557,
      "HLdvd": 8558,
      "HLpens": 8559,
      "HLfast": 8560,
      "HLvent": 8561,
      "amazon": 8562,
      "HLparce": 8563,
      "HLãĤ¢ãĤ¤": 8564,
      "Ã©ric": 8565,
      "HLãĤ»ãĥŁ": 8566,
      "HLãĥŀãĥĥãĥĪ": 8567,
      "HLãĥĳãĥĥãĥī": 8568,
      "HLç»§": 8569,
      "æŃ»": 8570,
      "HLåŃ¦ç¿Ĵ": 8571,
      "HLauto": 8572,
      "HLå½ĵåīį": 8573,
      "HLãĤ°ãĥĥãĤº": 8574,
      "HLç´łæĻ´": 8575,
      "HLformat": 8576,
      "config": 8577,
      "HLèª¿æķ´": 8578,
      "HLgouvernement": 8579,
      "130": 8580,
      "He": 8581,
      "gar": 8582,
      "onique": 8583,
      "HLdoll": 8584,
      "inte": 8585,
      "HLferm": 8586,
      "HLinput": 8587,
      "HLcomfort": 8588,
      "iving": 8589,
      "HLplaces": 8590,
      "118": 8591,
      "ãģĳãģ©": 8592,
      "HLãĤ¤ãĤ¿ãĥªãĤ¢": 8593,
      "HLouv": 8594,
      "HLheures": 8595,
      "HLçĶŁåľ°": 8596,
      "HLè§Ĵ": 8597,
      "HLenter": 8598,
      "HLspect": 8599,
      "ï¼ģ:": 8600,
      "HLliving": 8601,
      "HLstudy": 8602,
      "HLmillions": 8603,
      "HLæ¸©åº¦": 8604,
      "æŁĦ": 8605,
      "å¨ģ": 8606,
      "HLãģ¡ãģªãģ¿ãģ«": 8607,
      "HLben": 8608,
      "HLfive": 8609,
      "HLvm": 8610,
      "tez": 8611,
      "HLchocol": 8612,
      "ieur": 8613,
      "HLä½Ľ": 8614,
      "HLstore": 8615,
      "HLfranc": 8616,
      "aku": 8617,
      "HLãĥ¬ãĥ¼ãĤ¹": 8618,
      "HLãĥªãĥ³ãĤ¯": 8619,
      "HLmean": 8620,
      "HLseries": 8621,
      "issance": 8622,
      "HLdoing": 8623,
      "check": 8624,
      "ãĥīãĤ¢": 8625,
      "HLå¤ĸåĽ½": 8626,
      "HLæİ¨èĸ¦": 8627,
      "å²Ľ": 8628,
      "HLçŃĶ": 8629,
      "HLdonner": 8630,
      "HLgÃ©nÃ©ra": 8631,
      "HLæ¸©æ³ī": 8632,
      "aissance": 8633,
      "HLmoyen": 8634,
      "HLresults": 8635,
      "HLçĿĢ": 8636,
      "HLgovernment": 8637,
      "HLãģ¹ãģŁ": 8638,
      "MI": 8639,
      "mg": 8640,
      "nent": 8641,
      "ŀ¬": 8642,
      "HLbab": 8643,
      "ï¼«": 8644,
      "HLram": 8645,
      "ãĥ³ãĤ±": 8646,
      "HLä¸Ģæĭ¬": 8647,
      "HLéĩĮ": 8648,
      "HLåħ¬åħ±": 8649,
      "æŃ¦": 8650,
      "è´§": 8651,
      "HLæ´ĭ": 8652,
      "åĢĴ": 8653,
      "HLéĺ²æŃ¢": 8654,
      "HLattention": 8655,
      "HLdÃ©couv": 8656,
      "HLèĥ¡": 8657,
      "HLidea": 8658,
      "HLissues": 8659,
      "HLinnov": 8660,
      "erce": 8661,
      "HLmission": 8662,
      "HLfore": 8663,
      "HLreason": 8664,
      "åŃ¸": 8665,
      "HLprint": 8666,
      "ï½ĥ": 8667,
      "HLãĤ«ãĥ¼ãĥĨãĥ³": 8668,
      "HLexist": 8669,
      "HLçİĦ": 8670,
      "HLä»Ĭå¤©": 8671,
      "HLãĤ·ãĥ¼ãĥĪ": 8672,
      "HLãģĨãģª": 8673,
      "ç§ĭ": 8674,
      "HLå¤©å¸Ĥ": 8675,
      "HLãĥįãĤ¿": 8676,
      "HLdress": 8677,
      "HLåıĸå¼ķ": 8678,
      "uvre": 8679,
      "HLåįĶåĬĽ": 8680,
      "Ã«l": 8681,
      "HLut": 8682,
      "HLmagn": 8683,
      "HLãģĦãģ¡": 8684,
      "HLä¸Ģæ¬¡": 8685,
      "æķ£": 8686,
      "HLæĮī": 8687,
      "èį¯": 8688,
      "Ã´tels": 8689,
      "ology": 8690,
      "HLæĶ¹éĿ©": 8691,
      "HLvarious": 8692,
      "HLéŁ©": 8693,
      "HLãĥĶãĤ¢ãĥİ": 8694,
      "HLäºĴèģĶç½ĳ": 8695,
      "hw": 8696,
      "ki": 8697,
      "ħ¤": 8698,
      "HLwait": 8699,
      "mentation": 8700,
      "HLãĥĳãĤ¿ãĥ¼ãĥ³": 8701,
      "result": 8702,
      "HLå¤ļæķ°": 8703,
      "HLãģłãģ£ãģ¦": 8704,
      "HLmodern": 8705,
      "éļİ": 8706,
      "HLå¹¿ä¸ľ": 8707,
      "è±Ĩ": 8708,
      "HLå½¢å¼ı": 8709,
      "HLhuman": 8710,
      "HLgames": 8711,
      "HLåĶ¯": 8712,
      "hinok": 8713,
      ";-": 8714,
      "HLãĤį": 8715,
      "HLtor": 8716,
      "HLcount": 8717,
      "itr": 8718,
      "atÃ©g": 8719,
      "ãĥ¼ãĥĭ": 8720,
      "idden": 8721,
      "æĸĹ": 8722,
      "HLstaff": 8723,
      "HLåĬŁ": 8724,
      "ellow": 8725,
      "HLæĸ°èģŀ": 8726,
      "HLgrÃ¢ce": 8727,
      "allery": 8728,
      "HLéģķ": 8729,
      "éĽª": 8730,
      "HLå¯Ŀ": 8731,
      "HLãĥĢãĤ¦ãĥ³": 8732,
      "HLsave": 8733,
      "HLãĥĻãĤ¹ãĥĪ": 8734,
      "æĽ¿": 8735,
      "HLdrive": 8736,
      "HLinstru": 8737,
      "HLlivres": 8738,
      "HLä½ıæīĢ": 8739,
      "HLç·´": 8740,
      "HLç·Ĭ": 8741,
      "HLæĢ§æł¼": 8742,
      "HLmarketing": 8743,
      "HLãģ²ãģ¨ãģ¤": 8744,
      "HLsatisf": 8745,
      "HLèµĮåľº": 8746,
      "emploi": 8747,
      "HLè´£ä»»": 8748,
      "Docu": 8749,
      "LO": 8750,
      "TE": 8751,
      "bu": 8752,
      "most": 8753,
      "çł": 8754,
      "erence": 8755,
      "HLbur": 8756,
      "HLhous": 8757,
      "otion": 8758,
      "HLprest": 8759,
      "plac": 8760,
      "HLyoung": 8761,
      "Ã©rÃ©": 8762,
      "è¦ª": 8763,
      "HLãĥŃãĥ³ãĤ°": 8764,
      "HLãĥĢãĥĸãĥ«": 8765,
      "HLsynd": 8766,
      "ãĥ¢ãĥ³": 8767,
      "flag": 8768,
      "HLæĦŁæĥ³": 8769,
      "HLèįī": 8770,
      "HLsortie": 8771,
      "HLç¨³èµ¢": 8772,
      "Ã¢tel": 8773,
      "HLsuggest": 8774,
      "MP": 8775,
      "load": 8776,
      "sur": 8777,
      "za": 8778,
      "HLæ¤": 8779,
      "HLay": 8780,
      "HLaoÃ»t": 8781,
      "HLways": 8782,
      "ieuse": 8783,
      "HLãģĹãģ°": 8784,
      "HLãĤĪãĤį": 8785,
      "ither": 8786,
      "HLcompar": 8787,
      "HLcomplex": 8788,
      "HLæ²¹": 8789,
      "HLåĭ¤": 8790,
      "è£ķ": 8791,
      "HLä¿ĿæĬ¤": 8792,
      "ç·¨": 8793,
      "HLä¿¡èªī": 8794,
      "HLèĬĤ": 8795,
      "HLstrateg": 8796,
      "éłħ": 8797,
      "HLæ´»èºį": 8798,
      "HLæ¬¢è¿İ": 8799,
      "ãĥ´ãĤ¡": 8800,
      "HLenglish": 8801,
      "^)": 8802,
      "çĴ": 8803,
      "HLaim": 8804,
      "HLrÃ¨g": 8805,
      "HLreach": 8806,
      "HLãĤ¢ãĤ·": 8807,
      "HLwhether": 8808,
      "aisse": 8809,
      "å°¾": 8810,
      "avoir": 8811,
      "HLmeas": 8812,
      "HLrÃ©c": 8813,
      "ãĥĲãĤ¤ãĤ¹": 8814,
      "HLãĥĢãĤ¦": 8815,
      "HLå½ĵåºĹ": 8816,
      "ãĤ±ãĥ¼ãĤ¹": 8817,
      "HLå»ºè¨Ń": 8818,
      "HLåĪ¶å¾¡": 8819,
      "ãĤĩãģĨ": 8820,
      "HLèĭ±éĽĦ": 8821,
      "HLknowledge": 8822,
      "medi": 8823,
      "HLå¯¹äºİ": 8824,
      "HLèĮĥ": 8825,
      "HLèģĶç³»": 8826,
      "HLdetails": 8827,
      "HLåĢŁéĩĳ": 8828,
      "dom": 8829,
      "gd": 8830,
      "åĺ": 8831,
      "HLIn": 8832,
      "HLcp": 8833,
      "HLé¹": 8834,
      "106": 8835,
      "å®®": 8836,
      "æľĹ": 8837,
      "pper": 8838,
      "ads": 8839,
      "HLãĤ¢ãĥĢ": 8840,
      "HLstar": 8841,
      "HLè¿Ŀ": 8842,
      "elling": 8843,
      "ãĤ¸ãĥ«": 8844,
      "HLusb": 8845,
      "ãĥĲãĤ¤": 8846,
      "240": 8847,
      "ï¼ĳï¼Ĳï¼Ĳ": 8848,
      "HLãģįãģĮ": 8849,
      "HLæŃ£åľ¨": 8850,
      "HLchef": 8851,
      "partement": 8852,
      "HLwhole": 8853,
      "HLattend": 8854,
      "æ¶²": 8855,
      "HLchoose": 8856,
      "èĥľ": 8857,
      "HLcomplete": 8858,
      "HLæİĪæ¥Ń": 8859,
      "HLæ¼«çĶ»": 8860,
      "»çĸĹ": 8861,
      "Th": 8862,
      "ena": 8863,
      "HLcame": 8864,
      "åĪĬ": 8865,
      "ãĥ¼ãĤ»": 8866,
      "è¯ī": 8867,
      "HLãĥĳãĥ¼ãĥĪ": 8868,
      "true": 8869,
      "HLãģ¤ãģĭ": 8870,
      "duc": 8871,
      "HLé«ĺæīĭ": 8872,
      "HLãĥĢãĥ¡": 8873,
      "457": 8874,
      "447": 8875,
      "çŃĳ": 8876,
      "HLrelig": 8877,
      "HLdirection": 8878,
      "HLãģĦãģıãĤī": 8879,
      "HLæ³ķäºº": 8880,
      "HLèµĦæºĲ": 8881,
      "HLnouvelles": 8882,
      "ãĥ³ãĤµãĥ¼": 8883,
      "HLjournal": 8884,
      "HLåĲĳä¸Ĭ": 8885,
      "\"+": 8886,
      "HLdie": 8887,
      "HLãĤ¢ãĥĲ": 8888,
      "HLsurtout": 8889,
      "HLæĿŃ": 8890,
      "HLãĥĸãĥŃ": 8891,
      "HLãĤªãĥ¼ãĥĢãĥ¼": 8892,
      "aps": 8893,
      "HLseront": 8894,
      "è´«": 8895,
      "åŁ¹": 8896,
      "HLãĥ¯ãĤ¯": 8897,
      "HLä»ķæĸ¹": 8898,
      "éĴŁ": 8899,
      "HLengine": 8900,
      "HLministre": 8901,
      "relatedposts": 8902,
      "HLéĢĶä¸Ń": 8903,
      "Documents": 8904,
      "ef": 8905,
      "ãĥĥãĤ¿": 8906,
      "HLinde": 8907,
      "äº²": 8908,
      "HLåĩĨ": 8909,
      "HLstation": 8910,
      "HLãĤ³ãĤ¹ãĥĪ": 8911,
      "éĢĢ": 8912,
      "HLæĬµ": 8913,
      "ãĥĭãĥ¼ãĤ«ãĥ¼": 8914,
      "HLãĥĳãĥ¼ãĥĦ": 8915,
      "HLäººçī©": 8916,
      "çº³": 8917,
      "HLserve": 8918,
      "HLåĪĨäº«": 8919,
      "HLéĩįçĤ¹": 8920,
      "éļĬ": 8921,
      "HLcentral": 8922,
      "HLå®ļæľŁ": 8923,
      "HLæĺłåĥı": 8924,
      "HLchauff": 8925,
      "ï¿¥": 8926,
      "Tr": 8927,
      "hib": 8928,
      "é¾": 8929,
      "HLpil": 8930,
      "ä»¤": 8931,
      "ief": 8932,
      "HLstop": 8933,
      "HLstates": 8934,
      "HLãĤ«ãĥ©": 8935,
      "HLå¥Ĺ": 8936,
      "ç»Ī": 8937,
      "ç´į": 8938,
      "ãĤŃãĥ£": 8939,
      "HLreserved": 8940,
      "èµ°": 8941,
      "HLãģ¡ãģ®": 8942,
      "HLãģįãģ¡": 8943,
      "HLçĻ»åħ¥": 8944,
      "HLãĤŃãĥ£ãĥĥãĤ·ãĥ³ãĤ°": 8945,
      "HLæķĻæİĪ": 8946,
      "HLarticles": 8947,
      "paration": 8948,
      "HLéļ¾": 8949,
      "HLãĤ½ãĥķãĤ¡": 8950,
      "HLsecteur": 8951,
      "HLcondition": 8952,
      "HLcustomers": 8953,
      "ç¬¬": 8954,
      "HLsemaine": 8955,
      "HLãģĴãģŁ": 8956,
      "HLstreet": 8957,
      "(@": 8958,
      "?:": 8959,
      "é¹": 8960,
      "HLll": 8961,
      "HLbain": 8962,
      "ãĥ¼ãĥĴ": 8963,
      "HLãģĦãĤĮ": 8964,
      "HLåĩ¤": 8965,
      "HLalt": 8966,
      "ãĤ¤ãĥĵ": 8967,
      "HLãģŁãģ¨": 8968,
      "HLital": 8969,
      "HLä¸įæĸŃ": 8970,
      "ãĥĥãĤ±": 8971,
      "172": 8972,
      "ãĥĸãĤ¹": 8973,
      "HLspan": 8974,
      "æ¯Ĵ": 8975,
      "HLå¤©éĩİ": 8976,
      "HLçī¹å®ļ": 8977,
      "HLï½°": 8978,
      "HLassur": 8979,
      "HLéĽ»åŃĲ": 8980,
      "Ã¢te": 8981,
      "æģ©": 8982,
      "HLknown": 8983,
      "ãģĤãĤĭ": 8984,
      "HLcalled": 8985,
      "HLsignific": 8986,
      "HLèĳ¡": 8987,
      "HLèĩ´": 8988,
      "HLãĤ¸ãĥ¥ãĤ¨ãĥªãĥ¼": 8989,
      "HLçį²": 8990,
      "HLexcellent": 8991,
      "HLè´Łè´£": 8992,
      "hinokiya": 8993,
      "NE": 8994,
      "eux": 8995,
      "èĵ": 8996,
      "review": 8997,
      "HLdefin": 8998,
      "HLwent": 8999,
      "åĿĤ": 9000,
      "Ã©cr": 9001,
      "HLcaract": 9002,
      "HLcool": 9003,
      "èĪŀ": 9004,
      "HLçľŁå®ŀ": 9005,
      "HLfeatures": 9006,
      "shop": 9007,
      "HLæİ¨åĬ¨": 9008,
      "HLsecret": 9009,
      "HLèĭ±åĽ½": 9010,
      "HLnumÃ©ro": 9011,
      "HLfaÃ§on": 9012,
      "HLentreprise": 9013,
      "HLtypes": 9014,
      "HLå³¶": 9015,
      "HLãĤ¢ãĥĳãĥ¼ãĥĪ": 9016,
      "Chef": 9017,
      "HLãĤ«ãĥĨãĤ´": 9018,
      "lay": 9019,
      "nÃ©": 9020,
      "wards": 9021,
      "HLÃªtes": 9022,
      "anda": 9023,
      "ãĢħ": 9024,
      "ãĥªãĥ«": 9025,
      "HLãģĹãĤĵ": 9026,
      "HLãĤ¢ãĥ¼ãĥĪ": 9027,
      "ogue": 9028,
      "HLæ³¢": 9029,
      "HLãĤªãĥ¼ãĥĪ": 9030,
      "HLãĤ¿ãĤ¤": 9031,
      "HLé«ĺç´ļ": 9032,
      "HLåĩ¯åıĳçº¿": 9033,
      "ãģĤãģĪ": 9034,
      "HLæĢ»ä»£": 9035,
      "HLmedical": 9036,
      "HLæİĴåĪĹä¸ī": 9037,
      "HLdÃ©tail": 9038,
      "HLå§Ķåĳĺ": 9039,
      "HLdisponible": 9040,
      "'m": 9041,
      "IB": 9042,
      "li": 9043,
      "HLsoc": 9044,
      "HLlien": 9045,
      "eto": 9046,
      "ï¼¶": 9047,
      "HLãģªãģ«": 9048,
      "Ã¨ve": 9049,
      "HLè¨ªåķı": 9050,
      "HLãĤ¨ãĥįãĥ«": 9051,
      "HLserver": 9052,
      "ãĤ«ãĥ«": 9053,
      "HLé£Ľ": 9054,
      "HLæŃ£å¼ı": 9055,
      "HLå½ĵç¤¾": 9056,
      "show": 9057,
      "HLè¾ħ": 9058,
      "HLæĮĩå°İ": 9059,
      "èįī": 9060,
      "ervation": 9061,
      "ualitÃ©": 9062,
      "HLçĪ¶": 9063,
      "HLåĨįçĶŁ": 9064,
      "opping": 9065,
      "HLä¸ºäºĨ": 9066,
      "HLearly": 9067,
      "ĆĈąć": 9068,
      "HLcorrespond": 9069,
      "%;": 9070,
      "iments": 9071,
      "td": 9072,
      "é¸": 9073,
      "HLtak": 9074,
      "erre": 9075,
      "chat": 9076,
      "imp": 9077,
      "åħ»": 9078,
      "HLbegin": 9079,
      "ãĥĥãĤ³": 9080,
      "HLç½ĳæĬķ": 9081,
      "ption": 9082,
      "HLçĶŁæĹ¥": 9083,
      "HLperiod": 9084,
      "HLéĺ³": 9085,
      "HLnov": 9086,
      "æħ¢": 9087,
      "HLtravaux": 9088,
      "HLç³»çµ±": 9089,
      "HLåĢŁæ¬¾": 9090,
      "HLãĥ©ãĤ¤ãĥķ": 9091,
      "ãĥ¼ãĥĨãĤ£ãĥ¼": 9092,
      "HLå¼Ĭç¤¾": 9093,
      "ãĥ¼ãĥĳãĥ¼ãĤ³ãĥĶãĥ¼": 9094,
      "HLãĤįãģĨ": 9095,
      "mod": 9096,
      "resse": 9097,
      "ting": 9098,
      "HLpen": 9099,
      "HLéķ": 9100,
      "HLbÃ©nÃ©": 9101,
      "HLlaiss": 9102,
      "HLquoi": 9103,
      "HLãĥŀãĥĥãĥģ": 9104,
      "ãĥŁãĤ¢": 9105,
      "HLèĩªä½ĵ": 9106,
      "æ¸¬": 9107,
      "çºª": 9108,
      "HLãĥĩãĥ¢": 9109,
      "HLãĥŃãĥĥãĤ¯": 9110,
      "HLä¸»äºº": 9111,
      "HLèģļ": 9112,
      "HLãĥ¯ãĥ³": 9113,
      "HLmembres": 9114,
      "HLé¤Ĳ": 9115,
      "HLç¾½": 9116,
      "HLéĢŁåº¦": 9117,
      "ariat": 9118,
      "HLå®¹æĺĵ": 9119,
      "HLdÃ©veloppement": 9120,
      "HLå®īåįĵçīĪ": 9121,
      "HLalbum": 9122,
      "âĶ": 9123,
      "ï¼§": 9124,
      "HLpratique": 9125,
      "HLconcept": 9126,
      "HLsurface": 9127,
      "ãĤ¸ãĥ¥": 9128,
      "HLæ¸Ľ": 9129,
      "HLparty": 9130,
      "HLabove": 9131,
      "HLãĤ¸ãĥŁ": 9132,
      "HLåįķä½į": 9133,
      "HLdonne": 9134,
      "HLobten": 9135,
      "HLæ¸ħæ¥ļ": 9136,
      "HLç©ºæ¸¯": 9137,
      "HLç¡¬": 9138,
      "HLlangu": 9139,
      "HLçħ§æĺİ": 9140,
      "HLaccording": 9141,
      "HLassez": 9142,
      "210": 9143,
      "350": 9144,
      "AG": 9145,
      "bc": 9146,
      "rl": 9147,
      "wx": 9148,
      "Âł": 9149,
      "æ¦": 9150,
      "HLly": 9151,
      "organ": 9152,
      "ï¼¼": 9153,
      "HLhd": 9154,
      "ico": 9155,
      "HLunited": 9156,
      "ï½ħ": 9157,
      "HLå°½": 9158,
      "HLä¸įä¼ļ": 9159,
      "HLãģ¨ãģªãĤĬ": 9160,
      "HLæĸ°åŀĭ": 9161,
      "HLæīĭå¸³": 9162,
      "ardi": 9163,
      "ç»©": 9164,
      "HLèĭı": 9165,
      "HLãĥĨãĤŃ": 9166,
      "HLãĤ°ãĥ¬ãĥ¼": 9167,
      "HLæ©Łæ¢°": 9168,
      "HLcouple": 9169,
      "getElement": 9170,
      "annÃ©e": 9171,
      "HLéĵ¾æİ¥": 9172,
      "âĦĥ": 9173,
      "LD": 9174,
      "[:": 9175,
      "cur": 9176,
      "ged": 9177,
      "mn": 9178,
      "pire": 9179,
      "³¥": 9180,
      "Ã¤": 9181,
      "åŀ": 9182,
      "HLãĢħ": 9183,
      "HLçĩ": 9184,
      "åıĺ": 9185,
      "aged": 9186,
      "HLforward": 9187,
      "æĹ©": 9188,
      "HLå¹¶": 9189,
      "ãĤ¤ãĥł": 9190,
      "170": 9191,
      "HLclose": 9192,
      "HLåĽ½éļĽ": 9193,
      "éĽªçĲĥ": 9194,
      "HLamb": 9195,
      "HLåĬłå¼º": 9196,
      "HLãĤ°ãĥªãĥ¼ãĥ³": 9197,
      "ãĥ¼ãĥĨãĤ£ãĥ³ãĤ°": 9198,
      "HLimmobil": 9199,
      "HLpurch": 9200,
      "HLæ»ļéĽªçĲĥ": 9201,
      "HLsouth": 9202,
      "HLrecommend": 9203,
      "HLãģĻãģĶãģı": 9204,
      "HLèĹ¤": 9205,
      "HLpeinture": 9206,
      "HLï½¾ï¾ĥ": 9207,
      "QI": 9208,
      "TO": 9209,
      "wr": 9210,
      "HLtas": 9211,
      "HLpied": 9212,
      "HLãĥ¼": 9213,
      "HLappear": 9214,
      "HLé«ĺéĢŁ": 9215,
      "HLamazing": 9216,
      "ãĤ½ãĥĬãĤ¤ãĥĪ": 9217,
      "HLç¶²": 9218,
      "çĹĽ": 9219,
      "HLèīº": 9220,
      "HLapplications": 9221,
      "HLTÃ©lÃ©": 9222,
      "HLç³»åĪĹ": 9223,
      "HLnombreux": 9224,
      "ä¹¦è®°": 9225,
      "HLdimanche": 9226,
      "HLcollab": 9227,
      "HLvillage": 9228,
      "HLgiven": 9229,
      "HLsoleil": 9230,
      "ãģ·ãĤĬ": 9231,
      "yse": 9232,
      "HLbad": 9233,
      "eth": 9234,
      "HLwel": 9235,
      "else": 9236,
      "oted": 9237,
      "ulf": 9238,
      "Ã¨tres": 9239,
      "HLseen": 9240,
      "HLæīį": 9241,
      "ãĤ¤ãĥĦ": 9242,
      "HLãģĭãģı": 9243,
      "HLãģŁãģĹ": 9244,
      "HLæķĪ": 9245,
      "ãĤĵãģ«": 9246,
      "ãģłãģĳ": 9247,
      "HLmeuble": 9248,
      "HLsoon": 9249,
      "ç´Ģ": 9250,
      "HLä»Ĭéĩİ": 9251,
      "HLä¼ļåł´": 9252,
      "HLãĥıãĥ¼ãĥī": 9253,
      "HLworks": 9254,
      "HLåŁºæºĸ": 9255,
      "HLboiss": 9256,
      "HLãĥķãĤ£ãĥ«": 9257,
      "HLãĤ¢ãĥ«ãĥŁ": 9258,
      "ĈĆć": 9259,
      "HLdocuments": 9260,
      "HLhistoire": 9261,
      "ç¡Ģ": 9262,
      "HLassociation": 9263,
      "HLå·¦åı³": 9264,
      "HLãĤ¹ãĥĶãĥ¼ãĥī": 9265,
      "HLãģ¨ãĤĬãģĤãģĪ": 9266,
      "HLä¸ļåĬ¡": 9267,
      "HLãĤµãĥłãĤ½ãĥĬãĤ¤ãĥĪ": 9268,
      "HLéĻĦè¿ĳ": 9269,
      "æĿıåįĹ": 9270,
      "HLãĤ¨ãĥįãĥ«ãĤ®ãĥ¼": 9271,
      "HLãģ¨ãĤĬãģĤãģĪãģļ": 9272,
      "ds": 9273,
      "HLult": 9274,
      "HLsen": 9275,
      "ãĥ«ãĤ¯": 9276,
      "HLenfin": 9277,
      "HLåįĪ": 9278,
      "ãĤĤãģ®": 9279,
      "HLãĤ«ãĥ¯": 9280,
      "æī¿": 9281,
      "ogn": 9282,
      "HLrÃ©pond": 9283,
      "HLtele": 9284,
      "ç§»": 9285,
      "HLãģįãģ£": 9286,
      "HLãģ»ãĤĵ": 9287,
      "ç½²": 9288,
      "HLãĤ¬ãĤ¤ãĥī": 9289,
      "HLæ¼ı": 9290,
      "HLbroy": 9291,
      "HLèģ·åł´": 9292,
      "HLçĨ±": 9293,
      "ç²¾": 9294,
      "HLrestaurant": 9295,
      "HLdigital": 9296,
      "/\",\"": 9297,
      "just": 9298,
      "nt": 9299,
      "ç£": 9300,
      "ĲĨ": 9301,
      "HLdÃ¨s": 9302,
      "HLlux": 9303,
      "ï¼¨": 9304,
      "HLvan": 9305,
      "äº¡": 9306,
      "åºĦ": 9307,
      "ãģ¾ãģĻ": 9308,
      "ï¾Į": 9309,
      "HLserait": 9310,
      "HLäºĭåīį": 9311,
      "HLåĲĪæ³ķ": 9312,
      "flow": 9313,
      "itted": 9314,
      "HLtechnique": 9315,
      "HLãĤ¹ãĥĨãĥĥãĥĹ": 9316,
      "HLii": 9317,
      "HLeffective": 9318,
      "HLæ§ĭéĢł": 9319,
      "HLÃ©quipe": 9320,
      "HLãģ©ãģĨãģĹãģ¦ãĤĤ": 9321,
      "HLçĸ«æĥħ": 9322,
      "HLä»ĬéĩİæĿıåįĹ": 9323,
      "fi": 9324,
      "oe": 9325,
      "env": 9326,
      "elves": 9327,
      "åĪĽ": 9328,
      "ague": 9329,
      "HLæĹ§": 9330,
      "ocation": 9331,
      "HLæľĢéģ©": 9332,
      "aki": 9333,
      "è¯¢": 9334,
      "HLèĩªä¿¡": 9335,
      "HLãģ¤ãĤĤ": 9336,
      "HLpercent": 9337,
      "HLspa": 9338,
      "HLåİļ": 9339,
      "ãĥ»ãĥ»": 9340,
      "HLè´§": 9341,
      "HLè¡ĮçĤº": 9342,
      "HLçĶ·åŃĲ": 9343,
      "HLlongue": 9344,
      "temps": 9345,
      "HLtravers": 9346,
      "HLæ»¡": 9347,
      "HLåĪĿæľŁ": 9348,
      "æ»¡": 9349,
[...]
